[PAD]	0
[UNK]	0
[BOS]	0
[EOS]	0
[Q]	0
[A]	0
▁t	-0
▁a	-1
in	-2
he	-3
re	-4
▁o	-5
on	-6
at	-7
▁c	-8
▁s	-9
is	-10
▁the	-11
en	-12
al	-13
er	-14
es	-15
▁in	-16
▁of	-17
ro	-18
▁p	-19
it	-20
or	-21
nd	-22
▁m	-23
▁b	-24
▁f	-25
ed	-26
▁d	-27
an	-28
ion	-29
ic	-30
le	-31
ar	-32
om	-33
▁and	-34
▁w	-35
as	-36
ing	-37
ct	-38
us	-39
ve	-40
ent	-41
lo	-42
▁is	-43
▁T	-44
▁to	-45
▁h	-46
ou	-47
os	-48
▁A	-49
▁th	-50
▁n	-51
▁-	-52
ly	-53
▁sy	-54
▁re	-55
id	-56
▁g	-57
mp	-58
il	-59
ation	-60
et	-61
▁or	-62
▁e	-63
ia	-64
op	-65
▁(	-66
rom	-67
▁The	-68
▁are	-69
ra	-70
ig	-71
el	-72
od	-73
ut	-74
▁l	-75
▁be	-76
orm	-77
ur	-78
ay	-79
▁pro	-80
ith	-81
ot	-82
her	-83
▁with	-84
ul	-85
tom	-86
ment	-87
▁con	-88
▁S	-89
▁I	-90
▁ha	-91
fe	-92
▁dis	-93
ch	-94
▁can	-95
mptom	-96
▁that	-97
st	-98
▁an	-99
yp	-100
▁C	-101
▁symptom	-102
▁de	-103
▁M	-104
▁for	-105
um	-106
ow	-107
▁he	-108
th	-109
▁W	-110
▁on	-111
ls	-112
se	-113
aus	-114
▁may	-115
im	-116
ol	-117
ce	-118
ir	-119
▁P	-120
est	-121
ition	-122
▁gen	-123
fect	-124
▁ch	-125
▁have	-126
▁H	-127
ase	-128
▁y	-129
reat	-130
eop	-131
un	-132
▁wh	-133
ure	-134
▁st	-135
▁Q	-136
am	-137
eople	-138
▁?	-139
▁as	-140
dition	-141
ver	-142
if	-143
ge	-144
ab	-145
▁you	-146
ud	-147
ign	-148
▁D	-149
▁caus	-150
ndrom	-151
▁Wh	-152
ess	-153
ual	-154
ndrome	-155
cy	-156
ive	-157
▁condition	-158
ical	-159
▁people	-160
▁syndrome	-161
▁What	-162
ist	-163
▁ab	-164
ine	-165
▁se	-166
▁symptoms	-167
▁v	-168
ies	-169
ter	-170
ction	-171
▁ex	-172
are	-173
cl	-174
all	-175
ffect	-176
nt	-177
▁sign	-178
ph	-179
ad	-180
▁treat	-181
ial	-182
art	-183
▁blo	-184
▁cel	-185
▁R	-186
ease	-187
pe	-188
iv	-189
qu	-190
▁inf	-191
der	-192
em	-193
▁com	-194
act	-195
res	-196
osis	-197
ak	-198
▁from	-199
gn	-200
ormal	-201
up	-202
ity	-203
▁us	-204
▁by	-205
te	-206
ate	-207
▁ne	-208
low	-209
▁le	-210
ther	-211
▁blood	-212
▁disease	-213
ome	-214
▁G	-215
▁typ	-216
▁O	-217
ac	-218
ary	-219
ain	-220
▁In	-221
ated	-222
▁affect	-223
ations	-224
▁gene	-225
▁pat	-226
ich	-227
▁B	-228
age	-229
ency	-230
ost	-231
▁r	-232
lop	-233
ant	-234
ult	-235
ient	-236
▁man	-237
ort	-238
▁treatment	-239
▁F	-240
ormation	-241
clud	-242
cc	-243
lso	-244
▁per	-245
▁res	-246
hen	-247
▁includ	-248
ys	-249
ore	-250
▁at	-251
etic	-252
cer	-253
▁su	-254
▁also	-255
ild	-256
▁k	-257
0%	-258
▁your	-259
igh	-260
▁al	-261
▁dia	-262
▁not	-263
ans	-264
▁which	-265
ber	-266
order	-267
ases	-268
▁N	-269
ne	-270
▁fe	-271
▁information	-272
ms	-273
ten	-274
velop	-275
▁this	-276
gh	-277
▁cause	-278
herit	-279
▁E	-280
ble	-281
normal	-282
ress	-283
▁inherit	-284
▁fre	-285
▁cells	-286
▁these	-287
ail	-288
▁disorder	-289
▁do	-290
▁it	-291
ous	-292
▁develop	-293
▁frequ	-294
able	-295
one	-296
out	-297
ients	-298
▁other	-299
▁ra	-300
▁sh	-301
▁we	-302
▁lo	-303
▁li	-304
▁signs	-305
ody	-306
mon	-307
ru	-308
ast	-309
▁mut	-310
▁L	-311
▁occ	-312
▁2	-313
fic	-314
du	-315
▁tr	-316
▁call	-317
▁prote	-318
▁num	-319
hy	-320
▁1	-321
ivid	-322
gen	-323
▁called	-324
▁en	-325
▁one	-326
▁diagn	-327
iz	-328
▁body	-329
▁patients	-330
▁ad	-331
▁Re	-332
▁occur	-333
alth	-334
▁number	-335
▁cancer	-336
pl	-337
▁who	-338
▁how	-339
▁Gen	-340
▁Th	-341
ually	-342
ividual	-343
red	-344
).	-345
▁often	-346
▁affected	-347
▁ind	-348
▁type	-349
oc	-350
ib	-351
▁med	-352
ature	-353
▁sp	-354
▁protein	-355
osom	-356
▁rec	-357
ance	-358
ry	-359
▁5	-360
▁cases	-361
ach	-362
▁Med	-363
rou	-364
▁mus	-365
▁un	-366
ight	-367
▁individual	-368
▁int	-369
ger	-370
▁sk	-371
imp	-372
own	-373
ors	-374
▁pre	-375
ip	-376
▁These	-377
ill	-378
ose	-379
▁health	-380
ide	-381
▁frequency	-382
▁many	-383
▁av	-384
▁gro	-385
▁9	-386
our	-387
▁has	-388
ang	-389
▁This	-390
),	-391
▁include	-392
ular	-393
▁child	-394
▁How	-395
▁abnormal	-396
▁imp	-397
cre	-398
▁inherited	-399
▁stud	-400
▁proble	-401
log	-402
▁usually	-403
osomal	-404
ie	-405
isk	-406
ood	-407
pec	-408
▁more	-409
▁me	-410
▁prov	-411
▁about	-412
lin	-413
▁common	-414
▁rare	-415
▁90%	-416
▁cont	-417
cle	-418
rain	-419
ailable	-420
ren	-421
▁test	-422
▁available	-423
▁heart	-424
iss	-425
ke	-426
▁part	-427
utosomal	-428
▁risk	-429
▁such	-430
ces	-431
ag	-432
ness	-433
ions	-434
itis	-435
amin	-436
▁form	-437
▁dif	-438
ound	-439
uro	-440
▁problems	-441
▁cell	-442
ell	-443
idne	-444
▁fra	-445
▁individuals	-446
▁7	-447
ond	-448
ence	-449
▁list	-450
▁no	-451
rap	-452
ased	-453
lp	-454
▁provid	-455
▁most	-456
▁study	-457
▁mutations	-458
son	-459
▁Test	-460
ep	-461
ue	-462
ard	-463
▁help	-464
rent	-465
▁infect	-466
▁treatments	-467
▁genetic	-468
fici	-469
▁ey	-470
mo	-471
5%	-472
line	-473
end	-474
▁if	-475
▁brain	-476
▁Y	-477
▁skin	-478
ficiency	-479
rough	-480
asia	-481
▁some	-482
ctions	-483
▁Genetic	-484
▁up	-485
lus	-486
vent	-487
ck	-488
ert	-489
▁If	-490
ers	-491
▁ap	-492
ear	-493
ory	-494
▁but	-495
▁they	-496
▁ar	-497
▁feature	-498
▁mo	-499
▁50%	-500
▁7.	-501
ari	-502
ause	-503
rapy	-504
nown	-505
▁7.5%	-506
▁result	-507
▁diagnosis	-508
ough	-509
▁spec	-510
▁mak	-511
▁kidne	-512
▁their	-513
ile	-514
and	-515
ific	-516
▁causes	-517
olog	-518
inal	-519
▁sur	-520
ss	-521
lu	-522
▁lead	-523
acter	-524
▁hyp	-525
ack	-526
▁ac	-527
stem	-528
anges	-529
▁It	-530
▁tiss	-531
▁than	-532
ens	-533
▁each	-534
athy	-535
▁col	-536
ron	-537
Plus	-538
▁caused	-539
linePlus	-540
▁MedlinePlus	-541
ility	-542
gs	-543
▁rel	-544
essive	-545
▁fam	-546
▁pl	-547
▁fol	-548
▁autosomal	-549
▁occurs	-550
▁Sy	-551
lect	-552
phy	-553
imate	-554
▁Ab	-555
gery	-556
und	-557
pro	-558
▁ear	-559
tion	-560
▁pain	-561
ures	-562
▁system	-563
▁all	-564
cent	-565
▁deficiency	-566
ype	-567
cause	-568
per	-569
▁normal	-570
unction	-571
mun	-572
▁cop	-573
▁found	-574
▁changes	-575
ok	-576
▁U	-577
tal	-578
▁person	-579
ital	-580
ld	-581
vere	-582
▁muscle	-583
▁medic	-584
lowing	-585
ities	-586
uch	-587
▁inv	-588
▁produ	-589
yst	-590
amp	-591
irst	-592
▁recessive	-593
uman	-594
ap	-595
▁means	-596
agement	-597
▁been	-598
▁development	-599
oma	-600
omet	-601
▁im	-602
▁ur	-603
imes	-604
▁ner	-605
emia	-606
▁che	-607
▁need	-608
ced	-609
▁genes	-610
▁comp	-611
ology	-612
00	-613
mall	-614
▁examin	-615
▁Ch	-616
▁incre	-617
▁fact	-618
ically	-619
ever	-620
▁loss	-621
▁diffe	-622
▁management	-623
▁severe	-624
▁car	-625
tern	-626
▁were	-627
▁first	-628
▁j	-629
▁conditions	-630
▁K	-631
ism	-632
▁grow	-633
▁when	-634
ources	-635
▁For	-636
▁tum	-637
bet	-638
oth	-639
tic	-640
▁use	-641
▁ph	-642
▁prevent	-643
▁25	-644
ones	-645
▁di	-646
▁invol	-647
▁Human	-648
rol	-649
▁und	-650
▁percent	-651
▁different	-652
port	-653
other	-654
▁medical	-655
▁mal	-656
uring	-657
ong	-658
▁You	-659
oid	-660
oci	-661
ass	-662
▁listed	-663
▁resources	-664
henot	-665
erm	-666
linical	-667
▁Be	-668
▁examined	-669
▁small	-670
▁char	-671
▁Phenot	-672
▁out	-673
betes	-674
▁fraction	-675
ometimes	-676
▁Ont	-677
▁Ontology	-678
▁Phenotype	-679
▁act	-680
▁Abnormal	-681
▁low	-682
int	-683
▁under	-684
▁provides	-685
▁character	-686
▁Some	-687
▁vari	-688
▁ass	-689
▁Dis	-690
▁specific	-691
▁X	-692
▁care	-693
▁Treat	-694
▁following	-695
ized	-696
▁over	-697
▁through	-698
▁into	-699
▁tw	-700
▁move	-701
ily	-702
ons	-703
▁bet	-704
▁trial	-705
▁V	-706
▁Reg	-707
▁function	-708
istry	-709
▁eye	-710
very	-711
av	-712
plasia	-713
ative	-714
ind	-715
▁Testing	-716
▁trans	-717
eral	-718
▁kidney	-719
▁wor	-720
air	-721
▁leve	-722
ample	-723
▁cor	-724
ines	-725
▁chrom	-726
ros	-727
row	-728
▁Registry	-729
▁dys	-730
▁will	-731
▁People	-732
▁doct	-733
▁Dia	-734
▁children	-735
▁bone	-736
fter	-737
▁get	-738
▁Treatment	-739
fer	-740
ved	-741
▁my	-742
▁Hyp	-743
mia	-744
ick	-745
ime	-746
ociated	-747
ace	-748
▁group	-749
iew	-750
ays	-751
ertain	-752
▁tak	-753
phal	-754
rophy	-755
▁redu	-756
▁features	-757
ould	-758
ns	-759
gress	-760
▁ins	-761
▁during	-762
we	-763
ub	-764
▁clinical	-765
ute	-766
ting	-767
mune	-768
▁He	-769
ount	-770
▁est	-771
▁high	-772
▁am	-773
▁dam	-774
▁St	-775
opathy	-776
▁rese	-777
▁typically	-778
inant	-779
▁liver	-780
▁another	-781
▁An	-782
cess	-783
▁two	-784
▁types	-785
▁related	-786
omen	-787
pear	-788
ominant	-789
▁trials	-790
▁Symptom	-791
ium	-792
▁fat	-793
▁weak	-794
arent	-795
▁Symptoms	-796
▁3	-797
▁any	-798
▁pres	-799
▁Other	-800
▁doctor	-801
ym	-802
▁based	-803
▁after	-804
▁dep	-805
ral	-806
▁used	-807
eling	-808
mph	-809
king	-810
▁Abnormality	-811
▁age	-812
▁dominant	-813
▁Al	-814
▁resear	-815
▁Sign	-816
▁known	-817
▁neuro	-818
ran	-819
hes	-820
▁movement	-821
ite	-822
▁associated	-823
▁Signs	-824
▁lun	-825
▁abnormalities	-826
ocy	-827
ric	-828
▁look	-829
▁appear	-830
▁pattern	-831
cond	-832
▁vis	-833
▁short	-834
▁inheritance	-835
▁sc	-836
▁te	-837
ating	-838
▁tra	-839
view	-840
▁inst	-841
sy	-842
▁reg	-843
▁sever	-844
▁Is	-845
rug	-846
▁including	-847
▁time	-848
ves	-849
ater	-850
▁example	-851
▁disorders	-852
▁tissue	-853
▁press	-854
▁like	-855
▁Because	-856
▁factors	-857
▁early	-858
ax	-859
▁Most	-860
ues	-861
ath	-862
▁both	-863
▁sup	-864
ven	-865
▁second	-866
ied	-867
▁ant	-868
▁ly	-869
ational	-870
▁diabetes	-871
▁att	-872
▁new	-873
tin	-874
▁acid	-875
▁ep	-876
▁certain	-877
prox	-878
▁gl	-879
▁affects	-880
▁includes	-881
▁levels	-882
▁co	-883
▁Gene	-884
rib	-885
▁org	-886
▁had	-887
oint	-888
▁copy	-889
▁growth	-890
▁family	-891
proximate	-892
og	-893
▁whe	-894
genital	-895
▁bre	-896
oly	-897
ivity	-898
utations	-899
▁infection	-900
pt	-901
oph	-902
▁only	-903
▁surgery	-904
ening	-905
▁ro	-906
hood	-907
▁seen	-908
▁therapy	-909
▁def	-910
▁pressure	-911
gin	-912
▁clo	-913
▁resp	-914
rim	-915
ability	-916
co	-917
osome	-918
known	-919
▁Sometimes	-920
osed	-921
roid	-922
▁progress	-923
▁various	-924
ts	-925
▁should	-926
▁parent	-927
lex	-928
▁unknown	-929
▁so	-930
▁Sur	-931
lam	-932
ronic	-933
▁control	-934
ked	-935
▁There	-936
▁flu	-937
▁Review	-938
▁bl	-939
irth	-940
abil	-941
ious	-942
ancer	-943
▁bec	-944
▁det	-945
▁treated	-946
▁sub	-947
▁famil	-948
itation	-949
▁year	-950
opl	-951
zym	-952
▁proteins	-953
▁urine	-954
▁However	-955
▁hist	-956
▁horm	-957
▁tissues	-958
li	-959
▁mutation	-960
eding	-961
▁impair	-962
cles	-963
▁Ap	-964
▁add	-965
▁food	-966
▁make	-967
eases	-968
onia	-969
▁below	-970
ailure	-971
▁damage	-972
▁Diagn	-973
fore	-974
ants	-975
atic	-976
▁Tests	-977
▁tumor	-978
itary	-979
▁As	-980
ired	-981
ancy	-982
uk	-983
▁infections	-984
ri	-985
icro	-986
though	-987
▁enzym	-988
▁life	-989
NA	-990
▁chromosome	-991
astic	-992
▁bones	-993
▁tests	-994
▁Mutations	-995
▁research	-996
bin	-997
▁muscles	-998
ates	-999
▁Ne	-1000
▁Surgery	-1001
ving	-1002
les	-1003
▁effect	-1004
▁birth	-1005
atory	-1006
hers	-1007
iple	-1008
▁making	-1009
erg	-1010
▁characterized	-1011
ice	-1012
cephal	-1013
hyd	-1014
▁total	-1015
cies	-1016
▁Or	-1017
lamm	-1018
▁sug	-1019
ficult	-1020
els	-1021
▁Approximate	-1022
▁its	-1023
als	-1024
▁percentage	-1025
xy	-1026
ner	-1027
▁par	-1028
▁ser	-1029
ange	-1030
och	-1031
▁does	-1032
cular	-1033
▁Drug	-1034
▁show	-1035
▁instru	-1036
ostic	-1037
ible	-1038
▁ir	-1039
ouns	-1040
ident	-1041
▁bu	-1042
▁Care	-1043
▁collect	-1044
PO	-1045
de	-1046
izures	-1047
▁difficult	-1048
erms	-1049
ween	-1050
▁immune	-1051
▁Medical	-1052
hing	-1053
▁Euro	-1054
▁Europe	-1055
▁Res	-1056
▁lymph	-1057
▁vision	-1058
/2	-1059
▁met	-1060
▁defin	-1061
▁comes	-1062
uc	-1063
reb	-1064
▁childhood	-1065
its	-1066
arge	-1067
▁breat	-1068
▁hyper	-1069
stit	-1070
▁remo	-1071
▁Much	-1072
▁nerve	-1073
habil	-1074
ounseling	-1075
▁address	-1076
▁history	-1077
▁general	-1078
habilitation	-1079
▁table	-1080
arrow	-1081
▁fluid	-1082
▁National	-1083
▁red	-1084
▁phys	-1085
▁between	-1086
▁defect	-1087
▁begin	-1088
encies	-1089
▁vess	-1090
▁offer	-1091
▁4	-1092
▁acc	-1093
▁Pall	-1094
▁European	-1095
▁diagnose	-1096
▁head	-1097
▁estimate	-1098
▁long	-1099
▁arter	-1100
when	-1101
acial	-1102
▁Therapy	-1103
rin	-1104
omy	-1105
▁They	-1106
▁inj	-1107
▁sw	-1108
▁weakness	-1109
▁dysplasia	-1110
▁Diagnostic	-1111
▁dat	-1112
read	-1113
▁instructions	-1114
▁Pro	-1115
ont	-1116
▁before	-1117
▁pal	-1118
chers	-1119
val	-1120
▁import	-1121
▁because	-1122
▁collected	-1123
itions	-1124
▁rough	-1125
ft	-1126
iative	-1127
▁Ad	-1128
abase	-1129
▁terms	-1130
▁database	-1131
iction	-1132
▁When	-1133
▁important	-1134
▁Rehabilitation	-1135
▁Counseling	-1136
the	-1137
▁Palliative	-1138
esc	-1139
▁dyst	-1140
phan	-1141
HPO	-1142
▁definitions	-1143
▁enzyme	-1144
phanet	-1145
ning	-1146
▁25/2	-1147
▁Orphanet	-1148
▁frequencies	-1149
ks	-1150
▁fractions	-1151
▁diet	-1152
▁hand	-1153
▁25/25	-1154
▁Diction	-1155
▁Dictionary	-1156
ruct	-1157
▁del	-1158
▁ag	-1159
linked	-1160
▁kidneys	-1161
▁being	-1162
▁build	-1163
▁lower	-1164
▁depend	-1165
▁organs	-1166
▁joint	-1167
urrent	-1168
▁go	-1169
▁pos	-1170
▁cons	-1171
▁Instit	-1172
▁likely	-1173
▁mult	-1174
▁failure	-1175
▁involved	-1176
▁amount	-1177
icular	-1178
ful	-1179
▁Man	-1180
adder	-1181
aring	-1182
ior	-1183
▁Autosomal	-1184
ellect	-1185
▁ble	-1186
▁there	-1187
round	-1188
▁inter	-1189
▁tumors	-1190
▁spe	-1191
▁Disease	-1192
▁eyes	-1193
▁parts	-1194
▁intest	-1195
peri	-1196
▁ext	-1197
▁back	-1198
rop	-1199
▁cal	-1200
▁lim	-1201
▁adult	-1202
ect	-1203
▁En	-1204
ellectual	-1205
▁block	-1206
▁Cancer	-1207
▁experi	-1208
ffected	-1209
▁attack	-1210
▁few	-1211
ysis	-1212
▁reduce	-1213
▁diseases	-1214
▁medications	-1215
▁might	-1216
▁Sh	-1217
ritis	-1218
▁De	-1219
▁activity	-1220
▁become	-1221
▁mem	-1222
form	-1223
ree	-1224
▁NI	-1225
ctive	-1226
▁ident	-1227
▁years	-1228
itive	-1229
▁disability	-1230
rimary	-1231
▁increased	-1232
▁women	-1233
▁Resear	-1234
▁chronic	-1235
▁inflamm	-1236
▁provider	-1237
ulation	-1238
▁copies	-1239
▁Se	-1240
▁diagnosed	-1241
▁hair	-1242
osph	-1243
lder	-1244
ulin	-1245
istic	-1246
▁mild	-1247
▁carry	-1248
▁present	-1249
ester	-1250
▁abd	-1251
▁men	-1252
▁within	-1253
▁impairment	-1254
emal	-1255
▁mon	-1256
▁fing	-1257
outh	-1258
▁find	-1259
▁several	-1260
kin	-1261
▁very	-1262
▁lip	-1263
▁physical	-1264
▁congenital	-1265
ocyt	-1266
ob	-1267
▁anemia	-1268
arr	-1269
▁seizures	-1270
▁end	-1271
ially	-1272
▁qu	-1273
▁process	-1274
▁op	-1275
roke	-1276
▁vir	-1277
▁medicines	-1278
▁exp	-1279
▁identif	-1280
plic	-1281
▁main	-1282
rect	-1283
▁forms	-1284
▁vessels	-1285
▁bleeding	-1286
▁Child	-1287
▁less	-1288
di	-1289
ize	-1290
▁break	-1291
logical	-1292
▁slow	-1293
▁gland	-1294
oplasia	-1295
arc	-1296
▁pregn	-1297
yly	-1298
▁spread	-1299
▁struct	-1300
▁developing	-1301
▁take	-1302
ereb	-1303
▁sens	-1304
iod	-1305
▁loc	-1306
ural	-1307
rosis	-1308
ise	-1309
▁Institute	-1310
ame	-1311
▁report	-1312
ste	-1313
▁much	-1314
▁experience	-1315
luc	-1316
▁too	-1317
leep	-1318
▁hearing	-1319
tered	-1320
cts	-1321
asis	-1322
▁down	-1323
ox	-1324
▁production	-1325
los	-1326
▁leuk	-1327
▁Sp	-1328
▁addition	-1329
▁chem	-1330
▁mouth	-1331
rugs	-1332
▁rece	-1333
arg	-1334
▁done	-1335
hed	-1336
▁hem	-1337
▁large	-1338
▁impro	-1339
ardi	-1340
▁es	-1341
reditary	-1342
actyly	-1343
rit	-1344
▁Affected	-1345
▁tub	-1346
ade	-1347
▁6	-1348
tr	-1349
eth	-1350
vous	-1351
▁lung	-1352
▁II	-1353
▁pass	-1354
rogen	-1355
▁results	-1356
▁characteristic	-1357
▁hormone	-1358
▁Your	-1359
▁lungs	-1360
▁bladder	-1361
▁Con	-1362
▁Short	-1363
▁ob	-1364
▁altered	-1365
olester	-1366
▁delay	-1367
▁Many	-1368
▁increase	-1369
▁urin	-1370
ochond	-1371
▁helps	-1372
▁spinal	-1373
▁aut	-1374
DS	-1375
ann	-1376
way	-1377
▁femal	-1378
cop	-1379
yl	-1380
rem	-1381
▁ma	-1382
▁drugs	-1383
ling	-1384
▁cle	-1385
000	-1386
▁radi	-1387
hyp	-1388
▁Un	-1389
gest	-1390
odes	-1391
▁thin	-1392
▁proced	-1393
▁particular	-1394
▁support	-1395
ty	-1396
▁weight	-1397
▁progressive	-1398
▁subst	-1399
ances	-1400
▁mutated	-1401
letal	-1402
▁what	-1403
▁healthy	-1404
,000	-1405
ited	-1406
atosis	-1407
ord	-1408
▁cl	-1409
▁role	-1410
▁nervous	-1411
▁well	-1412
▁multiple	-1413
ergy	-1414
▁antib	-1415
▁legs	-1416
▁where	-1417
ian	-1418
iop	-1419
▁ve	-1420
▁non	-1421
▁them	-1422
▁parents	-1423
▁abs	-1424
igest	-1425
▁dystrophy	-1426
com	-1427
▁cyst	-1428
uria	-1429
cler	-1430
▁familial	-1431
▁facial	-1432
▁factor	-1433
not	-1434
set	-1435
edia	-1436
▁complic	-1437
xygen	-1438
cyc	-1439
▁those	-1440
erc	-1441
▁neck	-1442
▁enough	-1443
▁testing	-1444
asal	-1445
ages	-1446
olesterol	-1447
▁poly	-1448
▁wal	-1449
▁desc	-1450
cyclop	-1451
▁Le	-1452
▁Health	-1453
▁Encyclop	-1454
▁Encyclopedia	-1455
af	-1456
▁due	-1457
▁exam	-1458
▁Syndrome	-1459
▁bacter	-1460
ech	-1461
ull	-1462
▁work	-1463
▁requ	-1464
▁special	-1465
▁sex	-1466
▁serious	-1467
▁Researchers	-1468
yd	-1469
▁gluc	-1470
▁areas	-1471
▁bab	-1472
gal	-1473
ribed	-1474
▁side	-1475
ria	-1476
den	-1477
axia	-1478
▁injur	-1479
vers	-1480
▁tract	-1481
▁inflammation	-1482
of	-1483
orn	-1484
lete	-1485
▁Blo	-1486
▁min	-1487
▁cord	-1488
▁intellectual	-1489
enter	-1490
▁reported	-1491
▁My	-1492
pat	-1493
▁Am	-1494
▁causing	-1495
▁breathing	-1496
cul	-1497
▁smo	-1498
▁oxygen	-1499
clear	-1500
▁vit	-1501
thritis	-1502
▁DNA	-1503
▁face	-1504
ins	-1505
letion	-1506
▁even	-1507
▁chest	-1508
ists	-1509
▁severity	-1510
cin	-1511
▁sometimes	-1512
▁lin	-1513
▁flow	-1514
ire	-1515
▁adults	-1516
omm	-1517
▁em	-1518
rel	-1519
▁without	-1520
ane	-1521
▁cannot	-1522
roph	-1523
▁Do	-1524
romb	-1525
▁frequent	-1526
ffic	-1527
▁ret	-1528
▁check	-1529
▁suggest	-1530
▁calc	-1531
▁Although	-1532
▁sleep	-1533
▁ke	-1534
othe	-1535
osomes	-1536
▁rem	-1537
aging	-1538
ety	-1539
gia	-1540
hea	-1541
CA	-1542
ommend	-1543
▁recommend	-1544
▁air	-1545
▁reco	-1546
ional	-1547
iting	-1548
cephaly	-1549
▁made	-1550
▁energy	-1551
▁having	-1552
igment	-1553
▁virus	-1554
▁identified	-1555
ted	-1556
otic	-1557
▁ske	-1558
rh	-1559
▁leads	-1560
▁primary	-1561
▁var	-1562
▁cholesterol	-1563
bs	-1564
▁see	-1565
asm	-1566
▁change	-1567
▁however	-1568
▁improve	-1569
▁retin	-1570
▁To	-1571
▁glucose	-1572
ish	-1573
▁needed	-1574
▁stature	-1575
▁hemo	-1576
▁mole	-1577
▁period	-1578
▁although	-1579
▁complications	-1580
▁males	-1581
▁defects	-1582
▁Blood	-1583
▁white	-1584
▁rest	-1585
ulmon	-1586
jor	-1587
▁Par	-1588
yroid	-1589
▁was	-1590
▁same	-1591
itochond	-1592
ental	-1593
rup	-1594
▁effective	-1595
nal	-1596
▁month	-1597
▁start	-1598
pecially	-1599
ram	-1600
mong	-1601
sis	-1602
▁three	-1603
▁complex	-1604
vir	-1605
now	-1606
▁death	-1607
▁though	-1608
otor	-1609
fficient	-1610
▁lab	-1611
▁Neuro	-1612
▁extra	-1613
▁fib	-1614
pect	-1615
related	-1616
oim	-1617
elling	-1618
▁foods	-1619
▁fun	-1620
idney	-1621
▁whether	-1622
ments	-1623
▁light	-1624
▁while	-1625
▁generally	-1626
▁Int	-1627
ieve	-1628
▁nose	-1629
▁area	-1630
creased	-1631
utr	-1632
rial	-1633
▁Ind	-1634
▁pregnancy	-1635
oster	-1636
mental	-1637
▁stop	-1638
▁micro	-1639
eration	-1640
▁speech	-1641
▁tend	-1642
▁stroke	-1643
lob	-1644
▁inc	-1645
bers	-1646
▁iron	-1647
▁movements	-1648
▁poss	-1649
▁size	-1650
▁major	-1651
▁Kidney	-1652
▁taking	-1653
▁older	-1654
osp	-1655
▁females	-1656
like	-1657
arm	-1658
▁trig	-1659
▁fever	-1660
iratory	-1661
esis	-1662
▁stom	-1663
▁ability	-1664
ulmonary	-1665
▁leukemia	-1666
▁vary	-1667
▁hands	-1668
▁At	-1669
▁feet	-1670
▁around	-1671
▁intestine	-1672
itu	-1673
▁lear	-1674
▁:	-1675
▁Inf	-1676
▁Pat	-1677
▁her	-1678
▁supp	-1679
▁NIH	-1680
▁epis	-1681
idosis	-1682
▁leading	-1683
▁Children	-1684
▁families	-1685
▁marrow	-1686
▁cereb	-1687
oimmune	-1688
ominal	-1689
▁infants	-1690
▁hereditary	-1691
ract	-1692
▁Co	-1693
▁breast	-1694
▁beh	-1695
ptions	-1696
▁stand	-1697
▁among	-1698
pha	-1699
▁especially	-1700
▁cure	-1701
▁atrophy	-1702
ogen	-1703
▁know	-1704
▁skeletal	-1705
▁po	-1706
▁With	-1707
onic	-1708
usion	-1709
▁neurological	-1710
get	-1711
ash	-1712
▁months	-1713
psy	-1714
▁10	-1715
▁enl	-1716
otonia	-1717
eric	-1718
▁sugar	-1719
▁bel	-1720
▁ure	-1721
▁digest	-1722
▁proper	-1723
▁Disorder	-1724
ilar	-1725
▁stomach	-1726
ump	-1727
ust	-1728
ortic	-1729
▁normally	-1730
▁Ex	-1731
▁gast	-1732
▁ill	-1733
▁pot	-1734
▁least	-1735
▁better	-1736
▁described	-1737
▁way	-1738
▁commonly	-1739
▁ben	-1740
omas	-1741
▁cy	-1742
toma	-1743
▁inside	-1744
let	-1745
ides	-1746
▁app	-1747
▁procedure	-1748
▁Hem	-1749
▁vitamin	-1750
▁sufficient	-1751
oli	-1752
▁We	-1753
uter	-1754
▁right	-1755
▁complete	-1756
abol	-1757
▁dehyd	-1758
odies	-1759
encephal	-1760
▁keep	-1761
▁Hyper	-1762
▁every	-1763
▁finger	-1764
lying	-1765
▁ways	-1766
▁infancy	-1767
loc	-1768
ulth	-1769
ellar	-1770
▁Heart	-1771
ulthood	-1772
▁thyroid	-1773
▁urinary	-1774
gi	-1775
▁wee	-1776
▁arms	-1777
arrhea	-1778
▁water	-1779
▁insulin	-1780
▁lack	-1781
tens	-1782
▁away	-1783
PS	-1784
▁calcium	-1785
omiting	-1786
ression	-1787
alk	-1788
▁lit	-1789
▁upper	-1790
▁nerves	-1791
▁bacteria	-1792
ential	-1793
▁teeth	-1794
▁Disorders	-1795
hol	-1796
▁manner	-1797
▁contain	-1798
▁radiation	-1799
▁difficulty	-1800
ills	-1801
▁disrup	-1802
▁particularly	-1803
man	-1804
ways	-1805
▁produce	-1806
▁bal	-1807
▁gra	-1808
plant	-1809
aneous	-1810
otherapy	-1811
▁cent	-1812
);	-1813
▁studies	-1814
▁lif	-1815
▁myopathy	-1816
▁br	-1817
▁play	-1818
▁perform	-1819
▁mitochond	-1820
▁abnormally	-1821
par	-1822
look	-1823
▁val	-1824
▁problem	-1825
▁produced	-1826
la	-1827
pathy	-1828
▁conne	-1829
▁arteries	-1830
▁formation	-1831
▁Ac	-1832
▁last	-1833
▁cat	-1834
▁unus	-1835
ids	-1836
▁Com	-1837
led	-1838
viron	-1839
▁combin	-1840
▁detect	-1841
▁appears	-1842
utes	-1843
▁swelling	-1844
avior	-1845
ulate	-1846
ternal	-1847
▁mater	-1848
elo	-1849
▁count	-1850
▁possible	-1851
▁Individual	-1852
▁x	-1853
▁preval	-1854
▁Diabetes	-1855
▁unt	-1856
▁chance	-1857
umm	-1858
thal	-1859
aired	-1860
▁injury	-1861
cing	-1862
▁Individuals	-1863
cu	-1864
ration	-1865
▁illness	-1866
▁makes	-1867
▁effects	-1868
▁20	-1869
▁mil	-1870
▁underlying	-1871
▁Pre	-1872
▁unclear	-1873
▁cardi	-1874
clerosis	-1875
▁depends	-1876
▁ref	-1877
▁sus	-1878
▁fi	-1879
ings	-1880
▁Over	-1881
▁nasal	-1882
▁Ar	-1883
▁exerc	-1884
▁prevalence	-1885
function	-1886
▁resulting	-1887
▁Sc	-1888
▁hig	-1889
▁ears	-1890
▁increases	-1891
AS	-1892
▁remove	-1893
▁episodes	-1894
urn	-1895
▁follow	-1896
▁vomiting	-1897
dle	-1898
aling	-1899
▁Medic	-1900
▁progn	-1901
▁glands	-1902
▁remain	-1903
▁abdomen	-1904
▁adulthood	-1905
ung	-1906
▁accum	-1907
▁organ	-1908
▁clot	-1909
▁chromosomes	-1910
▁presc	-1911
▁deletion	-1912
▁patient	-1913
iac	-1914
▁fore	-1915
erature	-1916
▁chemical	-1917
▁transplant	-1918
ites	-1919
▁mic	-1920
▁sal	-1921
ostosis	-1922
aged	-1923
▁day	-1924
udden	-1925
alysis	-1926
▁using	-1927
▁mid	-1928
cohol	-1929
iotic	-1930
oderm	-1931
imilar	-1932
▁el	-1933
▁mod	-1934
▁pan	-1935
▁near	-1936
▁United	-1937
renal	-1938
▁conf	-1939
▁exact	-1940
▁ataxia	-1941
▁underst	-1942
▁abdominal	-1943
entric	-1944
▁options	-1945
▁bro	-1946
▁ver	-1947
aryn	-1948
▁Congenital	-1949
pp	-1950
▁fl	-1951
▁plate	-1952
ino	-1953
onal	-1954
▁level	-1955
▁Americ	-1956
▁autoimmune	-1957
▁others	-1958
▁environ	-1959
▁thought	-1960
nia	-1961
ordin	-1962
▁baby	-1963
igue	-1964
▁don	-1965
▁dist	-1966
▁arthritis	-1967
aches	-1968
lobin	-1969
▁estim	-1970
ituitary	-1971
aw	-1972
▁tube	-1973
▁du	-1974
▁nutr	-1975
▁world	-1976
▁thromb	-1977
▁reduced	-1978
be	-1979
▁hormones	-1980
▁functions	-1981
pid	-1982
▁joints	-1983
▁getting	-1984
▁Patients	-1985
▁er	-1986
ospital	-1987
ma	-1988
▁eating	-1989
vic	-1990
elan	-1991
▁sto	-1992
▁More	-1993
▁neur	-1994
▁temp	-1995
▁activ	-1996
▁palate	-1997
▁abnormality	-1998
▁States	-1999
atal	-2000
▁bow	-2001
▁happ	-2002
▁phosph	-2003
▁respiratory	-2004
▁later	-2005
▁similar	-2006
▁infected	-2007
tain	-2008
ape	-2009
▁fil	-2010
ives	-2011
ward	-2012
iopsy	-2013
mit	-2014
hyth	-2015
ilepsy	-2016
roscop	-2017
▁Micro	-2018
▁immun	-2019
▁higher	-2020
▁diarrhea	-2021
neum	-2022
aving	-2023
▁prognosis	-2024
ision	-2025
▁wide	-2026
▁attacks	-2027
iff	-2028
arged	-2029
▁drin	-2030
▁determ	-2031
reatening	-2032
romatosis	-2033
▁Low	-2034
▁estimated	-2035
▁involve	-2036
enia	-2037
ream	-2038
ither	-2039
produ	-2040
ignant	-2041
▁provide	-2042
met	-2043
▁meas	-2044
▁surv	-2045
bor	-2046
▁15	-2047
ummary	-2048
▁motor	-2049
▁spine	-2050
▁contact	-2051
▁metabol	-2052
▁poor	-2053
▁muscular	-2054
▁throughout	-2055
oot	-2056
▁rele	-2057
▁substances	-2058
bl	-2059
▁feel	-2060
▁standard	-2061
▁behavior	-2062
less	-2063
▁acute	-2064
oliosis	-2065
nea	-2066
bran	-2067
galy	-2068
▁onset	-2069
gnitive	-2070
rich	-2071
▁cir	-2072
▁current	-2073
▁require	-2074
▁neuropathy	-2075
▁elect	-2076
▁located	-2077
generation	-2078
omes	-2079
ialysis	-2080
ophil	-2081
▁developmental	-2082
tle	-2083
▁Mal	-2084
▁avoid	-2085
▁structures	-2086
▁active	-2087
▁About	-2088
▁ov	-2089
▁High	-2090
ler	-2091
ails	-2092
anth	-2093
▁youn	-2094
▁outlook	-2095
▁pigment	-2096
lic	-2097
▁CO	-2098
iness	-2099
▁additional	-2100
aract	-2101
ontrol	-2102
▁hepat	-2103
osure	-2104
lets	-2105
▁exc	-2106
▁born	-2107
▁repl	-2108
▁respons	-2109
▁material	-2110
iasis	-2111
▁colon	-2112
▁great	-2113
▁weeks	-2114
uf	-2115
ias	-2116
oids	-2117
▁Per	-2118
▁miss	-2119
ov	-2120
inemia	-2121
▁buildup	-2122
-1	-2123
ching	-2124
▁wors	-2125
▁Chronic	-2126
cules	-2127
ken	-2128
estinal	-2129
▁imaging	-2130
omyopathy	-2131
con	-2132
▁sa	-2133
rine	-2134
▁Mus	-2135
▁muc	-2136
steop	-2137
roidism	-2138
▁fingers	-2139
▁stress	-2140
▁feeling	-2141
▁researchers	-2142
▁tox	-2143
iving	-2144
▁then	-2145
▁5%	-2146
erat	-2147
▁eas	-2148
▁rep	-2149
▁begins	-2150
rogenase	-2151
▁molecules	-2152
chn	-2153
▁biopsy	-2154
sh	-2155
elf	-2156
▁hard	-2157
state	-2158
▁sample	-2159
idered	-2160
▁either	-2161
▁cho	-2162
▁class	-2163
▁clots	-2164
▁labor	-2165
▁considered	-2166
▁artery	-2167
▁contin	-2168
▁membran	-2169
GF	-2170
wh	-2171
▁mat	-2172
▁alcohol	-2173
sor	-2174
▁gly	-2175
▁prof	-2176
▁excess	-2177
▁Fam	-2178
med	-2179
ider	-2180
▁dry	-2181
▁Type	-2182
▁enlarged	-2183
AR	-2184
NDS	-2185
ock	-2186
▁carcin	-2187
uven	-2188
▁path	-2189
kinson	-2190
uvenile	-2191
▁impaired	-2192
old	-2193
unt	-2194
▁walking	-2195
▁recovery	-2196
▁dehydrogenase	-2197
CD	-2198
ats	-2199
▁Ph	-2200
▁involves	-2201
reg	-2202
ylo	-2203
▁plan	-2204
▁uses	-2205
▁narrow	-2206
▁balance	-2207
▁coordin	-2208
TP	-2209
aped	-2210
▁sudden	-2211
11	-2212
wn	-2213
ake	-2214
ches	-2215
fort	-2216
▁clear	-2217
arcoma	-2218
▁varies	-2219
threatening	-2220
RI	-2221
ios	-2222
▁foc	-2223
▁range	-2224
▁microscop	-2225
▁structure	-2226
▁frequently	-2227
wide	-2228
▁lact	-2229
antile	-2230
ditional	-2231
▁hal	-2232
ipher	-2233
▁Ly	-2234
ipheral	-2235
ator	-2236
▁pop	-2237
▁allow	-2238
▁50	-2239
ries	-2240
▁days	-2241
▁drug	-2242
▁properly	-2243
ascular	-2244
▁ult	-2245
▁rate	-2246
cancer	-2247
▁until	-2248
▁delayed	-2249
▁medication	-2250
▁On	-2251
sing	-2252
ters	-2253
odium	-2254
▁beta	-2255
ict	-2256
▁adrenal	-2257
▁antibiotic	-2258
ocl	-2259
orad	-2260
▁swal	-2261
omegaly	-2262
ruction	-2263
▁contrib	-2264
▁signaling	-2265
ark	-2266
▁appro	-2267
▁oste	-2268
▁renal	-2269
utaneous	-2270
▁pulmonary	-2271
uber	-2272
ix	-2273
lev	-2274
▁hyd	-2275
▁stiff	-2276
cessary	-2277
ye	-2278
ogly	-2279
seud	-2280
▁Whe	-2281
quired	-2282
▁color	-2283
▁creat	-2284
▁event	-2285
▁pituitary	-2286
acc	-2287
hyl	-2288
ened	-2289
onse	-2290
seal	-2291
▁slowly	-2292
▁exposure	-2293
ryp	-2294
▁Who	-2295
legia	-2296
▁rapid	-2297
▁direct	-2298
arily	-2299
▁prol	-2300
ention	-2301
▁Having	-2302
▁Diseases	-2303
▁substance	-2304
▁hypoplasia	-2305
▁fatigue	-2306
▁Clinical	-2307
CI	-2308
iven	-2309
▁fet	-2310
▁trigger	-2311
▁worldwide	-2312
▁response	-2313
ronch	-2314
▁bowel	-2315
▁exercise	-2316
que	-2317
▁Che	-2318
creas	-2319
▁acids	-2320
▁gastro	-2321
▁recurrent	-2322
ton	-2323
▁III	-2324
▁Certain	-2325
▁amounts	-2326
obl	-2327
ode	-2328
▁rib	-2329
▁anti	-2330
▁reas	-2331
▁alpha	-2332
▁smoking	-2333
CH	-2334
ema	-2335
aking	-2336
▁cysts	-2337
▁genital	-2338
▁responsible	-2339
▁AL	-2340
▁able	-2341
▁Additional	-2342
▁chemotherapy	-2343
itus	-2344
▁Ant	-2345
▁surf	-2346
▁develops	-2347
▁transport	-2348
teb	-2349
ole	-2350
▁cra	-2351
▁eat	-2352
▁off	-2353
cemia	-2354
▁eyel	-2355
▁live	-2356
▁neph	-2357
▁epilepsy	-2358
▁necessary	-2359
rip	-2360
▁30	-2361
▁distin	-2362
▁Neurological	-2363
cept	-2364
orrh	-2365
▁malignant	-2366
▁recommended	-2367
KD	-2368
heim	-2369
term	-2370
▁she	-2371
onset	-2372
active	-2373
physeal	-2374
such	-2375
erate	-2376
▁pneum	-2377
▁Infect	-2378
▁central	-2379
▁prom	-2380
globin	-2381
rouble	-2382
▁becomes	-2383
▁receive	-2384
ogra	-2385
▁lon	-2386
▁limbs	-2387
ave	-2388
▁scan	-2389
ocytes	-2390
▁thick	-2391
AD	-2392
ets	-2393
▁longer	-2394
dys	-2395
arian	-2396
▁signals	-2397
to	-2398
yth	-2399
ausea	-2400
ocytosis	-2401
most	-2402
▁best	-2403
▁recur	-2404
▁Hypert	-2405
1,	-2406
ars	-2407
▁place	-2408
▁breath	-2409
▁Aplasia	-2410
▁medicine	-2411
▁difficulties	-2412
lase	-2413
▁rea	-2414
ingle	-2415
▁pred	-2416
▁harm	-2417
▁recept	-2418
▁hepatitis	-2419
▁combination	-2420
▁Fe	-2421
▁bul	-2422
▁adol	-2423
▁bile	-2424
intestinal	-2425
▁digestive	-2426
▁providers	-2427
▁Di	-2428
▁ul	-2429
▁Dys	-2430
▁own	-2431
▁mill	-2432
gether	-2433
▁together	-2434
head	-2435
▁emb	-2436
▁skull	-2437
hydro	-2438
eopl	-2439
▁mig	-2440
ilial	-2441
onary	-2442
▁hour	-2443
▁times	-2444
▁environmental	-2445
osa	-2446
▁periods	-2447
encephaly	-2448
ras	-2449
ring	-2450
▁dest	-2451
▁step	-2452
tension	-2453
▁paralysis	-2454
▁des	-2455
▁Lung	-2456
▁rect	-2457
▁carri	-2458
▁cough	-2459
▁cancers	-2460
▁affecting	-2461
athic	-2462
▁stage	-2463
idence	-2464
mentia	-2465
▁regular	-2466
▁learning	-2467
ER	-2468
LC	-2469
Hyp	-2470
ents	-2471
zheim	-2472
▁plac	-2473
olated	-2474
▁fatty	-2475
▁quick	-2476
gressive	-2477
▁understand	-2478
▁Ep	-2479
tosis	-2480
▁condu	-2481
▁plays	-2482
ification	-2483
omal	-2484
ished	-2485
▁prim	-2486
DL	-2487
ds	-2488
pected	-2489
▁Cereb	-2490
▁damaged	-2491
▁malform	-2492
ove	-2493
▁fats	-2494
▁toes	-2495
asting	-2496
bility	-2497
untary	-2498
▁absor	-2499
▁spastic	-2500
▁products	-2501
▁eg	-2502
heum	-2503
lind	-2504
▁ess	-2505
▁Mult	-2506
▁fron	-2507
▁half	-2508
▁stem	-2509
▁surg	-2510
▁platelets	-2511
▁mitochondrial	-2512
▁dec	-2513
▁intra	-2514
▁retina	-2515
▁missing	-2516
che	-2517
uses	-2518
ophag	-2519
ption	-2520
▁decre	-2521
▁believe	-2522
▁Stroke	-2523
▁Alzheim	-2524
Hypoplasia	-2525
▁essential	-2526
oll	-2527
assium	-2528
▁Familial	-2529
▁antibodies	-2530
AM	-2531
acro	-2532
idge	-2533
▁Primary	-2534
▁Dep	-2535
▁mean	-2536
stream	-2537
▁extrem	-2538
▁sodium	-2539
▁hospital	-2540
▁shortage	-2541
▁functional	-2542
bo	-2543
uls	-2544
omer	-2545
▁repe	-2546
▁cardiomyopathy	-2547
phthal	-2548
NI	-2549
yle	-2550
▁No	-2551
▁Hep	-2552
▁bur	-2553
▁must	-2554
astoma	-2555
▁trave	-2556
▁bloodstream	-2557
fib	-2558
use	-2559
▁Tr	-2560
▁les	-2561
▁maintain	-2562
▁late	-2563
▁Adult	-2564
▁const	-2565
▁removed	-2566
ex	-2567
elin	-2568
▁think	-2569
rowth	-2570
▁Whether	-2571
proximately	-2572
arf	-2573
artil	-2574
▁Summary	-2575
▁opening	-2576
▁cav	-2577
oscop	-2578
oderma	-2579
rhosis	-2580
▁worse	-2581
▁Intellectual	-2582
▁sple	-2583
▁presence	-2584
imal	-2585
▁sin	-2586
▁parap	-2587
formation	-2588
▁encephal	-2589
▁carcinoma	-2590
▁40	-2591
anced	-2592
▁cran	-2593
▁middle	-2594
▁antibiotics	-2595
▁approximately	-2596
CT	-2597
mal	-2598
▁lay	-2599
idase	-2600
▁skills	-2601
▁stages	-2602
artilage	-2603
▁neurons	-2604
▁profess	-2605
▁variety	-2606
▁prostate	-2607
II	-2608
▁top	-2609
sc	-2610
imin	-2611
▁oral	-2612
phosph	-2613
▁could	-2614
▁region	-2615
▁protect	-2616
io	-2617
cereb	-2618
▁obes	-2619
▁mineral	-2620
▁degeneration	-2621
oh	-2622
sp	-2623
ises	-2624
odyst	-2625
▁myelo	-2626
istance	-2627
▁During	-2628
▁spleen	-2629
▁dialysis	-2630
▁determine	-2631
▁swe	-2632
orphy	-2633
▁therap	-2634
▁pancreas	-2635
ipp	-2636
▁Leuk	-2637
▁home	-2638
▁safe	-2639
afness	-2640
ardiac	-2641
itivity	-2642
▁activities	-2643
▁IV	-2644
▁Skin	-2645
▁left	-2646
▁again	-2647
▁melan	-2648
▁tired	-2649
▁interfe	-2650
ray	-2651
▁four	-2652
▁stor	-2653
▁tone	-2654
▁trem	-2655
mature	-2656
▁given	-2657
▁taken	-2658
▁ureth	-2659
▁sl	-2660
▁male	-2661
▁Seizures	-2662
▁primarily	-2663
inf	-2664
▁Ret	-2665
▁wom	-2666
▁Cent	-2667
openia	-2668
shaped	-2669
▁Lymph	-2670
▁night	-2671
▁confir	-2672
▁hernia	-2673
odactyly	-2674
▁appearance	-2675
PD	-2676
▁arm	-2677
▁pict	-2678
▁thro	-2679
▁hours	-2680
▁benign	-2681
▁quickly	-2682
▁dysfunction	-2683
12	-2684
TI	-2685
erv	-2686
down	-2687
▁hip	-2688
ologist	-2689
vention	-2690
▁single	-2691
gth	-2692
▁Red	-2693
▁pen	-2694
aries	-2695
▁Poly	-2696
▁milk	-2697
estyle	-2698
▁While	-2699
mus	-2700
ula	-2701
rach	-2702
▁die	-2703
micro	-2704
vices	-2705
develop	-2706
iate	-2707
▁foot	-2708
▁members	-2709
urys	-2710
oradic	-2711
orosis	-2712
▁learn	-2713
▁ulcer	-2714
ientists	-2715
▁relieve	-2716
MD	-2717
SD	-2718
umb	-2719
olip	-2720
side	-2721
lagen	-2722
itting	-2723
ocytic	-2724
▁contract	-2725
▁unusually	-2726
arp	-2727
▁Op	-2728
oses	-2729
ondro	-2730
▁stim	-2731
xylase	-2732
▁survive	-2733
▁distinctive	-2734
▁sol	-2735
▁just	-2736
terior	-2737
aro	-2738
▁needs	-2739
▁respond	-2740
▁pr	-2741
▁close	-2742
▁signific	-2743
▁depending	-2744
▁swallowing	-2745
AP	-2746
enal	-2747
▁adv	-2748
anger	-2749
earing	-2750
▁inner	-2751
▁still	-2752
▁supple	-2753
▁storage	-2754
▁moderate	-2755
▁excessive	-2756
▁hemoglobin	-2757
ics	-2758
1-	-2759
neal	-2760
osin	-2761
▁But	-2762
▁run	-2763
ermat	-2764
▁crit	-2765
▁techn	-2766
▁lining	-2767
▁mental	-2768
▁microscope	-2769
▁AD	-2770
asse	-2771
▁past	-2772
rophic	-2773
▁mother	-2774
▁sexual	-2775
▁trouble	-2776
▁surround	-2777
ufficiency	-2778
ably	-2779
also	-2780
▁100	-2781
▁See	-2782
▁pel	-2783
▁ages	-2784
ography	-2785
▁procedures	-2786
AT	-2787
▁inh	-2788
▁sun	-2789
▁replace	-2790
▁currently	-2791
eroid	-2792
ission	-2793
▁divid	-2794
estions	-2795
▁acquired	-2796
▁cartilage	-2797
▁stiffness	-2798
ID	-2799
min	-2800
▁Cle	-2801
erative	-2802
▁decreased	-2803
▁sclerosis	-2804
▁significant	-2805
▁cut	-2806
▁cold	-2807
▁lump	-2808
▁view	-2809
▁nodes	-2810
regular	-2811
▁broken	-2812
▁location	-2813
▁Childhood	-2814
▁Ke	-2815
ache	-2816
rive	-2817
▁enter	-2818
▁valve	-2819
▁Hereditary	-2820
▁completely	-2821
EN	-2822
ww	-2823
rum	-2824
▁kne	-2825
ateral	-2826
▁depos	-2827
▁shape	-2828
▁sperm	-2829
escence	-2830
ibility	-2831
▁nausea	-2832
▁Cognitive	-2833
my	-2834
rag	-2835
▁Li	-2836
▁All	-2837
▁Bro	-2838
▁babies	-2839
▁bridge	-2840
▁receptor	-2841
▁literature	-2842
▁12	-2843
▁nu	-2844
elor	-2845
▁bil	-2846
▁limb	-2847
▁fibers	-2848
▁stones	-2849
▁isolated	-2850
▁adolescence	-2851
pan	-2852
ret	-2853
geal	-2854
▁young	-2855
▁juvenile	-2856
gra	-2857
▁Im	-2858
▁bi	-2859
▁py	-2860
▁Tum	-2861
▁pur	-2862
▁veins	-2863
▁apparent	-2864
▁pregnant	-2865
▁prevents	-2866
ef	-2867
xi	-2868
▁sound	-2869
▁throat	-2870
▁account	-2871
▁extreme	-2872
▁feeding	-2873
orticoster	-2874
▁Parkinson	-2875
mps	-2876
inent	-2877
creening	-2878
▁malformations	-2879
mic	-2880
▁Af	-2881
▁working	-2882
▁nutrition	-2883
▁accumulation	-2884
▁malformation	-2885
SA	-2886
ense	-2887
orine	-2888
rhyth	-2889
▁flat	-2890
▁simp	-2891
iation	-2892
▁widely	-2893
▁depression	-2894
uss	-2895
▁PD	-2896
arse	-2897
borns	-2898
rical	-2899
tingu	-2900
▁gain	-2901
▁NINDS	-2902
▁worsen	-2903
▁decrease	-2904
▁identify	-2905
▁potassium	-2906
▁contribute	-2907
odys	-2908
▁Ear	-2909
▁open	-2910
▁sick	-2911
▁soft	-2912
▁passed	-2913
▁distingu	-2914
▁lymphoma	-2915
odystrophy	-2916
▁breakdown	-2917
▁questions	-2918
▁insufficiency	-2919
ina	-2920
roy	-2921
atoid	-2922
ochrom	-2923
ophilia	-2924
▁little	-2925
▁surface	-2926
▁regulate	-2927
ils	-2928
manent	-2929
weight	-2930
▁million	-2931
▁fibrosis	-2932
steoporosis	-2933
▁intestinal	-2934
rong	-2935
ross	-2936
tein	-2937
▁ast	-2938
▁gang	-2939
▁chann	-2940
ndactyly	-2941
ll	-2942
onus	-2943
opia	-2944
▁why	-2945
▁toxic	-2946
▁doctors	-2947
▁inability	-2948
▁therapies	-2949
▁inflammatory	-2950
sych	-2951
▁gas	-2952
▁Doct	-2953
ription	-2954
▁rectum	-2955
▁surgical	-2956
▁permanent	-2957
oss	-2958
ified	-2959
ising	-2960
▁correct	-2961
▁hemorrh	-2962
▁coronary	-2963
▁dystonia	-2964
▁infantile	-2965
▁sm	-2966
▁tas	-2967
▁Rare	-2968
▁kerat	-2969
▁unable	-2970
▁painful	-2971
ps	-2972
▁Lim	-2973
agmus	-2974
▁spot	-2975
▁wall	-2976
▁Renal	-2977
▁regul	-2978
ization	-2979
levated	-2980
ystagmus	-2981
▁lesions	-2982
▁external	-2983
▁injuries	-2984
▁hypotonia	-2985
▁involuntary	-2986
cal	-2987
▁Rec	-2988
chance	-2989
▁above	-2990
▁vessel	-2991
▁progression	-2992
LA	-2993
ait	-2994
ucoma	-2995
▁aden	-2996
▁give	-2997
▁good	-2998
amples	-2999
▁Afric	-3000
▁Women	-3001
▁refer	-3002
▁stool	-3003
▁viral	-3004
▁verteb	-3005
▁Spastic	-3006
▁reprodu	-3007
ieved	-3008
▁succ	-3009
▁vacc	-3010
ocrine	-3011
▁blind	-3012
▁unusual	-3013
▁da	-3014
ocal	-3015
ules	-3016
▁leg	-3017
creat	-3018
rence	-3019
▁Hepat	-3020
▁almost	-3021
nostosis	-3022
▁Research	-3023
▁clotting	-3024
ocytopenia	-3025
.)	-3026
izz	-3027
▁CH	-3028
othy	-3029
used	-3030
▁eyeb	-3031
▁uter	-3032
comfort	-3033
ipation	-3034
heumatoid	-3035
▁American	-3036
▁collagen	-3037
▁paraplegia	-3038
▁--	-3039
▁CD	-3040
▁fract	-3041
▁indic	-3042
aryngeal	-3043
▁Multiple	-3044
▁lifestyle	-3045
ita	-3046
onad	-3047
▁rash	-3048
▁fluids	-3049
ogenesis	-3050
▁disrupt	-3051
▁heartbe	-3052
▁CT	-3053
inds	-3054
lytic	-3055
▁Stud	-3056
▁deep	-3057
▁full	-3058
▁numb	-3059
▁vein	-3060
urther	-3061
▁metabolic	-3062
▁pneumonia	-3063
Co	-3064
rab	-3065
opro	-3066
▁Col	-3067
▁lys	-3068
resia	-3069
▁lose	-3070
▁stren	-3071
genesis	-3072
▁compon	-3073
▁measure	-3074
struction	-3075
ier	-3076
rocy	-3077
▁cur	-3078
▁sch	-3079
cogen	-3080
inase	-3081
▁lens	-3082
keletal	-3083
▁happens	-3084
cerebellar	-3085
▁Me	-3086
ella	-3087
mann	-3088
▁lar	-3089
▁mac	-3090
ressed	-3091
▁rarely	-3092
▁Doctors	-3093
▁enzymes	-3094
entricular	-3095
rypt	-3096
▁female	-3097
▁Hypoplasia	-3098
▁professional	-3099
IV	-3100
▁along	-3101
CoA	-3102
ird	-3103
lut	-3104
unct	-3105
▁vag	-3106
xiety	-3107
alasse	-3108
▁cleft	-3109
▁sensory	-3110
▁forehead	-3111
pos	-3112
rate	-3113
▁grad	-3114
▁doesn	-3115
▁esophag	-3116
▁coordination	-3117
ker	-3118
trans	-3119
▁scal	-3120
▁earli	-3121
▁systems	-3122
2,	-3123
GFR	-3124
vis	-3125
▁ox	-3126
oler	-3127
▁COL	-3128
seudo	-3129
▁Phys	-3130
plastic	-3131
▁bronch	-3132
▁membrane	-3133
▁treating	-3134
SP	-3135
▁60	-3136
▁Pl	-3137
▁duct	-3138
▁human	-3139
▁traum	-3140
ndromes	-3141
tinence	-3142
▁visual	-3143
▁persons	-3144
oglycemia	-3145
▁critical	-3146
▁involving	-3147
▁Treatments	-3148
ived	-3149
elorism	-3150
▁Severe	-3151
▁Failure	-3152
▁temperature	-3153
ribe	-3154
▁One	-3155
▁Oste	-3156
▁Early	-3157
▁blocks	-3158
▁Without	-3159
▁spreads	-3160
iat	-3161
ura	-3162
itone	-3163
raine	-3164
▁magn	-3165
▁ribs	-3166
▁seem	-3167
▁fight	-3168
▁urethra	-3169
▁preventing	-3170
ork	-3171
oun	-3172
elia	-3173
orph	-3174
▁Smo	-3175
▁Wil	-3176
▁ane	-3177
▁jaw	-3178
▁soc	-3179
▁paras	-3180
▁scler	-3181
▁shown	-3182
▁absence	-3183
▁newborns	-3184
▁esophagus	-3185
CN	-3186
go	-3187
nic	-3188
▁ev	-3189
iect	-3190
▁Aut	-3191
▁New	-3192
▁gets	-3193
▁term	-3194
▁Rarely	-3195
▁distal	-3196
▁insert	-3197
▁tested	-3198
▁against	-3199
associated	-3200
▁population	-3201
▁corticoster	-3202
yg	-3203
▁AR	-3204
▁CA	-3205
▁irrit	-3206
▁smoke	-3207
▁whose	-3208
▁aneurys	-3209
▁supports	-3210
▁electrical	-3211
az	-3212
▁div	-3213
▁prob	-3214
▁salt	-3215
venous	-3216
▁cover	-3217
▁limited	-3218
angu	-3219
cell	-3220
▁Talk	-3221
▁talk	-3222
enosis	-3223
▁After	-3224
control	-3225
▁dental	-3226
▁transmit	-3227
▁headaches	-3228
▁supportive	-3229
thy	-3230
▁ed	-3231
▁seg	-3232
ertility	-3233
asms	-3234
▁pla	-3235
ourse	-3236
▁Long	-3237
genita	-3238
▁front	-3239
▁separ	-3240
anguage	-3241
ataract	-3242
▁exposed	-3243
▁release	-3244
▁reproductive	-3245
.2	-3246
▁Pain	-3247
▁Studies	-3248
▁3-	-3249
▁yet	-3250
ister	-3251
kines	-3252
patic	-3253
mediate	-3254
▁commun	-3255
▁repair	-3256
▁removal	-3257
▁dementia	-3258
▁irregular	-3259
2-	-3260
yph	-3261
ongue	-3262
▁absorb	-3263
iopathic	-3264
ociation	-3265
▁cirrhosis	-3266
inding	-3267
onatal	-3268
▁usual	-3269
▁performed	-3270
hma	-3271
▁try	-3272
▁hydro	-3273
▁imper	-3274
▁Anemia	-3275
▁linked	-3276
▁cardiac	-3277
▁patches	-3278
▁personal	-3279
idiopathic	-3280
iny	-3281
asing	-3282
▁always	-3283
▁filter	-3284
▁Muscular	-3285
▁building	-3286
EC	-3287
ae	-3288
urb	-3289
omic	-3290
plen	-3291
▁Bab	-3292
▁NCI	-3293
lysis	-3294
osing	-3295
▁daily	-3296
▁embry	-3297
▁Normal	-3298
▁Proble	-3299
▁Tumors	-3300
▁absent	-3301
▁glomer	-3302
ibit	-3303
▁dev	-3304
apill	-3305
rotic	-3306
▁relax	-3307
▁uterus	-3308
orineural	-3309
athyroidism	-3310
▁mitochondria	-3311
▁bo	-3312
▁Del	-3313
▁anus	-3314
▁dizz	-3315
uberty	-3316
▁easily	-3317
▁tongue	-3318
▁carries	-3319
▁cerebral	-3320
▁division	-3321
▁hemolytic	-3322
str	-3323
ulo	-3324
▁come	-3325
▁tempor	-3326
▁deposits	-3327
▁stenosis	-3328
▁congenita	-3329
▁illnesses	-3330
▁behavioral	-3331
▁pe	-3332
▁sac	-3333
▁angi	-3334
▁outside	-3335
▁Problems	-3336
▁cataract	-3337
▁imperfect	-3338
MT	-3339
ayed	-3340
care	-3341
▁UTI	-3342
▁asp	-3343
▁sep	-3344
▁name	-3345
▁want	-3346
▁never	-3347
▁dermat	-3348
▁country	-3349
▁regions	-3350
▁section	-3351
mutations	-3352
▁blindness	-3353
▁resistance	-3354
RP	-3355
arth	-3356
valu	-3357
▁Met	-3358
▁Sch	-3359
iform	-3360
▁Spec	-3361
ypical	-3362
▁incon	-3363
▁veget	-3364
▁conver	-3365
▁Control	-3366
othyroidism	-3367
▁ent	-3368
amine	-3369
lexia	-3370
dactyly	-3371
▁disturb	-3372
ead	-3373
gan	-3374
▁Rh	-3375
▁pie	-3376
▁disc	-3377
▁bodys	-3378
▁spect	-3379
▁groups	-3380
▁porphy	-3381
▁ovarian	-3382
▁Physical	-3383
▁numbness	-3384
▁systemic	-3385
▁Recurrent	-3386
▁chemicals	-3387
13	-3388
aps	-3389
arb	-3390
rest	-3391
▁soon	-3392
▁stay	-3393
▁Cleft	-3394
atories	-3395
lobulin	-3396
▁deform	-3397
▁trauma	-3398
olerance	-3399
▁language	-3400
▁Decreased	-3401
▁imperfecta	-3402
▁intestines	-3403
▁peripheral	-3404
xt	-3405
kes	-3406
gram	-3407
▁rot	-3408
▁contro	-3409
▁atresia	-3410
▁deafness	-3411
▁headache	-3412
▁sporadic	-3413
▁uncontrol	-3414
▁Progressive	-3415
1.	-3416
who	-3417
aund	-3418
chan	-3419
▁SLC	-3420
▁turn	-3421
verage	-3422
▁fetal	-3423
▁woman	-3424
rasound	-3425
▁thrive	-3426
athyroid	-3427
cephalus	-3428
▁puberty	-3429
▁viruses	-3430
▁Leukemia	-3431
▁acidosis	-3432
▁computer	-3433
▁disrupts	-3434
ST	-3435
oes	-3436
pri	-3437
upus	-3438
▁Cro	-3439
▁ple	-3440
▁Each	-3441
▁sure	-3442
ferase	-3443
oulder	-3444
▁Acute	-3445
▁benef	-3446
oclonus	-3447
▁allows	-3448
▁contra	-3449
▁internal	-3450
▁premature	-3451
▁progresses	-3452
▁laboratories	-3453
ging	-3454
▁gum	-3455
betic	-3456
iable	-3457
ollen	-3458
thing	-3459
▁amylo	-3460
▁psych	-3461
▁inherits	-3462
▁severely	-3463
▁spectrum	-3464
OX	-3465
iltr	-3466
ison	-3467
▁Cor	-3468
▁tom	-3469
▁gall	-3470
▁drink	-3471
▁optic	-3472
▁tubes	-3473
▁mechan	-3474
▁reason	-3475
▁social	-3476
▁airways	-3477
▁suggests	-3478
ool	-3479
▁gu	-3480
aves	-3481
comp	-3482
ently	-3483
hyper	-3484
▁init	-3485
priate	-3486
▁alter	-3487
▁probably	-3488
▁sensation	-3489
▁discomfort	-3490
bal	-3491
▁Urin	-3492
▁phal	-3493
▁site	-3494
lement	-3495
▁cavity	-3496
▁Hearing	-3497
▁Cerebral	-3498
▁reaction	-3499
▁nutrients	-3500
▁shortness	-3501
▁underdevelop	-3502
igo	-3503
emic	-3504
ping	-3505
▁ask	-3506
▁dark	-3507
▁inje	-3508
ensity	-3509
▁Trans	-3510
▁waste	-3511
▁course	-3512
iferative	-3513
▁symptomatic	-3514
RT	-3515
acch	-3516
cele	-3517
▁200	-3518
▁ank	-3519
▁cry	-3520
otens	-3521
▁Even	-3522
itoneal	-3523
▁bodies	-3524
▁elimin	-3525
▁corneal	-3526
▁earlier	-3527
▁shoulder	-3528
▁interfere	-3529
▁idiopathic	-3530
▁functioning	-3531
▁Cell	-3532
▁Croh	-3533
▁once	-3534
▁notice	-3535
▁finding	-3536
▁chromosomal	-3537
BS	-3538
bow	-3539
▁Hyd	-3540
▁pump	-3541
▁attach	-3542
▁Delayed	-3543
▁remains	-3544
lammatory	-3545
estational	-3546
▁mass	-3547
▁meth	-3548
version	-3549
▁anomal	-3550
▁further	-3551
▁studied	-3552
▁thalasse	-3553
▁incidence	-3554
▁secondary	-3555
▁overweight	-3556
me	-3557
tt	-3558
onged	-3559
▁Bone	-3560
▁eggs	-3561
▁confirm	-3562
▁genitalia	-3563
▁heartbeat	-3564
▁suspected	-3565
bes	-3566
uture	-3567
▁vide	-3568
themia	-3569
ellitus	-3570
▁happen	-3571
▁plaque	-3572
▁tremor	-3573
▁minutes	-3574
▁success	-3575
▁laboratory	-3576
.3	-3577
IDS	-3578
hem	-3579
ailed	-3580
▁case	-3581
▁emot	-3582
▁liqu	-3583
▁palsy	-3584
▁plasm	-3585
▁steps	-3586
▁blockage	-3587
▁Prevention	-3588
▁hypertension	-3589
au	-3590
ols	-3591
ored	-3592
lored	-3593
▁Being	-3594
▁monit	-3595
thyosis	-3596
▁General	-3597
▁greater	-3598
▁harmful	-3599
▁obesity	-3600
▁connective	-3601
▁eventually	-3602
▁ultrasound	-3603
TR	-3604
born	-3605
ubin	-3606
▁aim	-3607
▁Food	-3608
▁Risk	-3609
▁eryth	-3610
▁penis	-3611
ifically	-3612
▁bacterial	-3613
▁producing	-3614
plenomegaly	-3615
▁supplements	-3616
br	-3617
▁Gu	-3618
▁Rad	-3619
losis	-3620
vious	-3621
▁Less	-3622
▁cort	-3623
▁glyc	-3624
▁pers	-3625
acchar	-3626
atural	-3627
▁smell	-3628
▁Thromb	-3629
activity	-3630
▁carrier	-3631
▁migraine	-3632
▁Institutes	-3633
▁prescribed	-3634
oi	-3635
▁SM	-3636
aced	-3637
▁Ins	-3638
▁MRI	-3639
▁Not	-3640
▁ach	-3641
▁emp	-3642
icles	-3643
▁kill	-3644
▁synt	-3645
▁tiny	-3646
igital	-3647
ophage	-3648
▁evalu	-3649
aundice	-3650
kinesia	-3651
▁things	-3652
location	-3653
▁anxiety	-3654
▁eyebrow	-3655
▁controls	-3656
▁starting	-3657
▁cancerous	-3658
▁syndromes	-3659
▁distinguished	-3660
LD	-3661
iary	-3662
rict	-3663
work	-3664
▁dil	-3665
ismus	-3666
▁walk	-3667
▁layer	-3668
aphyseal	-3669
▁Urinary	-3670
▁examine	-3671
▁continue	-3672
▁glycogen	-3673
▁position	-3674
▁Scoliosis	-3675
▁dizziness	-3676
BC	-3677
mb	-3678
gina	-3679
▁Men	-3680
▁Comp	-3681
▁fall	-3682
▁frag	-3683
iatric	-3684
▁walls	-3685
cinosis	-3686
uration	-3687
▁across	-3688
▁center	-3689
omatosis	-3690
ophageal	-3691
▁colitis	-3692
▁mellitus	-3693
▁Microcephaly	-3694
MP	-3695
▁bed	-3696
ashes	-3697
erior	-3698
▁Cran	-3699
▁goes	-3700
elated	-3701
lorect	-3702
lorectal	-3703
▁tomography	-3704
▁incontinence	-3705
gov	-3706
ared	-3707
lial	-3708
orch	-3709
▁larger	-3710
▁refers	-3711
▁Another	-3712
hypotonia	-3713
phthalmia	-3714
het	-3715
urg	-3716
ocele	-3717
uplic	-3718
▁drop	-3719
ending	-3720
iltrum	-3721
oscopy	-3722
▁aspir	-3723
▁click	-3724
▁spots	-3725
▁video	-3726
▁sarcoma	-3727
▁referred	-3728
▁relative	-3729
▁Pulmonary	-3730
▁intolerance	-3731
pus	-3732
▁1.	-3733
▁ax	-3734
sens	-3735
wing	-3736
▁Car	-3737
▁fac	-3738
hetic	-3739
idism	-3740
press	-3741
ositis	-3742
▁neopl	-3743
▁memory	-3744
▁someone	-3745
orchidism	-3746
▁screening	-3747
▁parathyroid	-3748
LS	-3749
PA	-3750
gel	-3751
ithe	-3752
lers	-3753
absor	-3754
arget	-3755
ource	-3756
▁Redu	-3757
▁Common	-3758
oblastic	-3759
▁African	-3760
▁destroy	-3761
▁rheumatoid	-3762
ule	-3763
land	-3764
omat	-3765
oral	-3766
rill	-3767
▁Bre	-3768
▁fal	-3769
▁anim	-3770
▁epid	-3771
asional	-3772
▁cornea	-3773
▁mainly	-3774
▁myelin	-3775
▁pictures	-3776
▁repeated	-3777
BB	-3778
odg	-3779
▁Ul	-3780
ival	-3781
losa	-3782
ution	-3783
▁Neph	-3784
▁hypert	-3785
▁kinase	-3786
▁instead	-3787
chromatosis	-3788
▁metabolism	-3789
ML	-3790
nit	-3791
rae	-3792
cyst	-3793
▁cyt	-3794
▁put	-3795
loboma	-3796
mission	-3797
▁specialized	-3798
by	-3799
gu	-3800
whe	-3801
izing	-3802
oints	-3803
▁Lear	-3804
▁goal	-3805
▁sores	-3806
molysis	-3807
ystonia	-3808
▁retinal	-3809
▁drinking	-3810
▁strength	-3811
▁membranes	-3812
fat	-3813
▁Ig	-3814
ians	-3815
▁vas	-3816
ables	-3817
▁Have	-3818
▁flex	-3819
odgkin	-3820
reated	-3821
▁appet	-3822
▁milder	-3823
▁series	-3824
▁average	-3825
ryptorchidism	-3826
▁hemochromatosis	-3827
RA	-3828
▁Us	-3829
tend	-3830
▁Imp	-3831
▁Also	-3832
▁port	-3833
onance	-3834
▁fewer	-3835
▁Infants	-3836
▁Smoking	-3837
▁elevated	-3838
▁Approximately	-3839
▁transplantation	-3840
NS	-3841
ief	-3842
iva	-3843
▁Of	-3844
mias	-3845
orac	-3846
ypes	-3847
▁hab	-3848
▁now	-3849
growth	-3850
istent	-3851
▁Small	-3852
▁fatal	-3853
▁builds	-3854
▁future	-3855
deletion	-3856
ological	-3857
▁segment	-3858
cancerous	-3859
osinophil	-3860
▁osteoporosis	-3861
lap	-3862
cule	-3863
orax	-3864
lioma	-3865
losum	-3866
▁meat	-3867
nitine	-3868
▁Sever	-3869
▁artic	-3870
ication	-3871
▁fusion	-3872
▁recogn	-3873
rabismus	-3874
▁dietary	-3875
▁eyelids	-3876
▁foreign	-3877
▁appetite	-3878
▁contains	-3879
▁genetics	-3880
▁Alzheimer	-3881
▁cognitive	-3882
▁resonance	-3883
▁Information	-3884
10	-3885
▁14	-3886
lant	-3887
worm	-3888
ounds	-3889
▁tell	-3890
▁enlarge	-3891
▁component	-3892
▁constipation	-3893
ah	-3894
▁17	-3895
▁CF	-3896
▁Non	-3897
▁nev	-3898
▁una	-3899
▁yel	-3900
auses	-3901
opoly	-3902
▁Check	-3903
▁ducts	-3904
▁nucle	-3905
▁order	-3906
▁reach	-3907
▁shows	-3908
▁spond	-3909
ergency	-3910
▁create	-3911
▁member	-3912
▁focuses	-3913
▁growing	-3914
▁natural	-3915
▁reasons	-3916
▁molecule	-3917
▁potential	-3918
▁encephalopathy	-3919
fel	-3920
▁2.	-3921
▁Macro	-3922
▁instit	-3923
▁younger	-3924
ontaneous	-3925
▁Diagnosis	-3926
▁increasing	-3927
▁examination	-3928
ges	-3929
▁Wol	-3930
▁bru	-3931
▁deg	-3932
leton	-3933
▁Breast	-3934
soriasis	-3935
▁partial	-3936
▁measures	-3937
▁Scientists	-3938
▁replacement	-3939
na	-3940
ips	-3941
▁old	-3942
epend	-3943
▁mach	-3944
aresis	-3945
asthen	-3946
flexia	-3947
▁Fever	-3948
▁elbow	-3949
▁lupus	-3950
▁breaks	-3951
▁living	-3952
ulations	-3953
▁arrhyth	-3954
▁vaccine	-3955
▁Cataract	-3956
▁fractures	-3957
▁urination	-3958
▁unaffected	-3959
AG	-3960
DD	-3961
eg	-3962
▁(1	-3963
▁epi	-3964
▁Fact	-3965
▁team	-3966
▁cathe	-3967
▁taste	-3968
▁would	-3969
▁asthma	-3970
▁septal	-3971
utrition	-3972
▁Several	-3973
▁concent	-3974
▁lactose	-3975
▁smaller	-3976
abilities	-3977
▁Normally	-3978
▁callosum	-3979
▁prescribe	-3980
odeficiency	-3981
▁understood	-3982
inocerebellar	-3983
bum	-3984
ony	-3985
▁Sw	-3986
arin	-3987
▁gla	-3988
▁nur	-3989
ician	-3990
▁Once	-3991
▁leak	-3992
cystic	-3993
piratory	-3994
▁100,000	-3995
▁inhibit	-3996
▁suscept	-3997
▁swollen	-3998
iocytosis	-3999
▁detailed	-4000
▁glaucoma	-4001
▁required	-4002
▁endocrine	-4003
▁thalassemia	-4004
PP	-4005
▁TS	-4006
▁aw	-4007
isis	-4008
izes	-4009
▁CKD	-4010
▁read	-4011
ushing	-4012
▁surge	-4013
▁allerg	-4014
▁needle	-4015
▁neural	-4016
ardation	-4017
▁Develop	-4018
ih	-4019
lux	-4020
▁Bl	-4021
angi	-4022
ells	-4023
oice	-4024
▁HIV	-4025
▁hum	-4026
▁base	-4027
▁heav	-4028
▁Broad	-4029
▁Paras	-4030
▁amino	-4031
▁broad	-4032
▁Narrow	-4033
▁checked	-4034
▁Overview	-4035
▁vitamins	-4036
▁Americans	-4037
▁beginning	-4038
):	-4039
RE	-4040
day	-4041
ged	-4042
▁22	-4043
aser	-4044
▁Ble	-4045
▁pin	-4046
verse	-4047
▁Gast	-4048
bladder	-4049
▁choice	-4050
▁habits	-4051
▁Reduced	-4052
▁attention	-4053
▁accumulate	-4054
▁sensitivity	-4055
LE	-4056
ez	-4057
ote	-4058
zen	-4059
atch	-4060
ties	-4061
void	-4062
▁ful	-4063
astes	-4064
▁Dist	-4065
▁palm	-4066
▁inject	-4067
▁itself	-4068
▁acidemia	-4069
▁followed	-4070
▁Alzheimers	-4071
▁controlling	-4072
▁intravenous	-4073
IC	-4074
asc	-4075
▁13	-4076
▁bot	-4077
▁fru	-4078
▁net	-4079
enign	-4080
▁inte	-4081
▁neut	-4082
▁scar	-4083
▁ster	-4084
Related	-4085
▁matter	-4086
▁Hospital	-4087
▁gradually	-4088
igmentation	-4089
▁dysostosis	-4090
▁microdeletion	-4091
▁GI	-4092
osyl	-4093
▁Thy	-4094
▁Loss	-4095
▁fast	-4096
▁fist	-4097
▁risks	-4098
angiect	-4099
▁bullosa	-4100
▁impairs	-4101
▁channels	-4102
▁reduction	-4103
encephalopathy	-4104
ires	-4105
ject	-4106
athia	-4107
hesia	-4108
▁here	-4109
athies	-4110
▁local	-4111
▁pseudo	-4112
▁transf	-4113
▁greatly	-4114
▁provided	-4115
▁Parasites	-4116
▁prolonged	-4117
▁retardation	-4118
▁understanding	-4119
atum	-4120
bing	-4121
glut	-4122
ices	-4123
▁SCA	-4124
isomy	-4125
phrag	-4126
▁Both	-4127
▁purp	-4128
utions	-4129
▁corpus	-4130
▁animals	-4131
▁pathway	-4132
▁Respiratory	-4133
▁association	-4134
▁q	-4135
DNA	-4136
agic	-4137
iosy	-4138
ried	-4139
▁nod	-4140
ather	-4141
ivers	-4142
orter	-4143
plain	-4144
doster	-4145
onomic	-4146
▁Intra	-4147
▁alone	-4148
▁Others	-4149
igestive	-4150
▁myeloid	-4151
▁ovaries	-4152
▁carriers	-4153
uplication	-4154
oe	-4155
iqu	-4156
opic	-4157
▁Bet	-4158
▁Vis	-4159
bsite	-4160
lycer	-4161
▁clus	-4162
▁nons	-4163
▁tooth	-4164
ophosph	-4165
ropathy	-4166
▁breathe	-4167
asionally	-4168
▁combined	-4169
▁platelet	-4170
▁Digestive	-4171
hydroxylase	-4172
parathyroidism	-4173
SF	-4174
ff	-4175
irs	-4176
ror	-4177
▁wr	-4178
ifid	-4179
time	-4180
urom	-4181
▁ect	-4182
going	-4183
▁Cyst	-4184
arring	-4185
phragm	-4186
▁Brach	-4187
▁influ	-4188
▁rhyth	-4189
▁waves	-4190
ndromic	-4191
▁spasms	-4192
oplastic	-4193
▁deterior	-4194
▁mobility	-4195
▁ultimate	-4196
▁reactions	-4197
▁classified	-4198
▁syndactyly	-4199
▁gestational	-4200
HF	-4201
rot	-4202
▁19	-4203
▁PO	-4204
alip	-4205
ised	-4206
▁set	-4207
omatic	-4208
▁lasts	-4209
iabetes	-4210
▁Center	-4211
▁cystic	-4212
▁methyl	-4213
▁places	-4214
▁starts	-4215
▁epiderm	-4216
arthritis	-4217
▁directly	-4218
▁philtrum	-4219
▁vegetables	-4220
roliferative	-4221
▁appropriate	-4222
bac	-4223
aric	-4224
olar	-4225
▁Web	-4226
▁isn	-4227
hepat	-4228
▁decl	-4229
▁sarc	-4230
▁tear	-4231
▁shock	-4232
▁voice	-4233
creatic	-4234
▁density	-4235
▁sitting	-4236
oblastoma	-4237
▁Increased	-4238
▁Hypertelorism	-4239
mat	-4240
tDNA	-4241
▁Nor	-4242
bumin	-4243
▁Myelo	-4244
▁grows	-4245
▁connect	-4246
keratosis	-4247
▁vascular	-4248
▁prominent	-4249
▁prevention	-4250
▁disabilities	-4251
HD	-4252
▁TB	-4253
ched	-4254
isol	-4255
▁Key	-4256
osaic	-4257
▁Wide	-4258
▁aort	-4259
▁chol	-4260
▁takes	-4261
▁wastes	-4262
blastoma	-4263
ydactyly	-4264
▁flatten	-4265
▁rotated	-4266
▁coloboma	-4267
▁received	-4268
▁emergency	-4269
RD	-4270
aj	-4271
ruv	-4272
uous	-4273
▁Occ	-4274
ataxia	-4275
ightly	-4276
irubin	-4277
▁fully	-4278
▁subun	-4279
▁blocked	-4280
▁careful	-4281
▁website	-4282
inflammatory	-4283
acy	-4284
arox	-4285
elic	-4286
ined	-4287
▁MPS	-4288
NINDS	-4289
ories	-4290
▁cloud	-4291
▁fetus	-4292
▁heter	-4293
▁morph	-4294
▁scalp	-4295
▁danger	-4296
▁pelvic	-4297
▁strong	-4298
▁summary	-4299
▁melanoma	-4300
rosclerosis	-4301
▁polydactyly	-4302
▁underdeveloped	-4303
▁corticosteroids	-4304
▁GM	-4305
▁Tw	-4306
type	-4307
▁HDL	-4308
idine	-4309
ranul	-4310
vered	-4311
▁Fron	-4312
▁dent	-4313
▁ions	-4314
▁ring	-4315
▁knees	-4316
▁limit	-4317
▁offic	-4318
▁Points	-4319
▁simple	-4320
▁contamin	-4321
absorption	-4322
▁posterior	-4323
▁Infections	-4324
▁surrounding	-4325
▁uncontrolled	-4326
-2	-4327
OS	-4328
XX	-4329
unk	-4330
find	-4331
hand	-4332
▁ATP	-4333
▁mis	-4334
alled	-4335
nails	-4336
retin	-4337
▁aorta	-4338
▁clean	-4339
ocytoma	-4340
▁Ataxia	-4341
▁Centers	-4342
▁produces	-4343
▁requires	-4344
▁developed	-4345
▁maturation	-4346
▁spontaneous	-4347
.,	-4348
oy	-4349
atin	-4350
cont	-4351
ners	-4352
onan	-4353
▁ich	-4354
natal	-4355
ogram	-4356
▁ting	-4357
▁week	-4358
ibular	-4359
opolys	-4360
▁carbo	-4361
▁hemat	-4362
▁radio	-4363
▁device	-4364
▁classic	-4365
▁growths	-4366
▁suspect	-4367
▁ultimately	-4368
opolysacchar	-4369
▁dehydration	-4370
▁Additionally	-4371
▁significantly	-4372
ata	-4373
lse	-4374
occ	-4375
upt	-4376
▁1,	-4377
igid	-4378
▁clu	-4379
ached	-4380
ellum	-4381
▁anal	-4382
▁post	-4383
ulates	-4384
usions	-4385
▁Crohn	-4386
▁drain	-4387
▁sense	-4388
▁supply	-4389
osidosis	-4390
▁variant	-4391
▁emotional	-4392
▁untreated	-4393
▁healthcare	-4394
ET	-4395
off	-4396
▁Ro	-4397
▁ho	-4398
▁bra	-4399
▁egg	-4400
arcot	-4401
ysmal	-4402
▁else	-4403
▁nail	-4404
facial	-4405
vature	-4406
▁Charcot	-4407
aroxysmal	-4408
elangiect	-4409
▁triggers	-4410
▁eliminate	-4411
▁processes	-4412
▁overgrowth	-4413
▁hypothyroidism	-4414
arie	-4415
igen	-4416
ille	-4417
isms	-4418
otos	-4419
▁Can	-4420
▁Gra	-4421
▁Pal	-4422
▁his	-4423
ribes	-4424
stead	-4425
▁Clin	-4426
▁roof	-4427
called	-4428
guinal	-4429
oietic	-4430
oprote	-4431
ruvate	-4432
▁infant	-4433
▁intake	-4434
▁electro	-4435
ovascular	-4436
▁patterns	-4437
▁lysosomes	-4438
▁phosphate	-4439
▁porphyria	-4440
▁effectively	-4441
▁lymphocytes	-4442
NF	-4443
ky	-4444
var	-4445
yot	-4446
▁FA	-4447
aces	-4448
quam	-4449
▁pub	-4450
antar	-4451
oring	-4452
▁blur	-4453
▁glut	-4454
▁line	-4455
▁mist	-4456
anthus	-4457
minist	-4458
strual	-4459
▁anest	-4460
▁Growth	-4461
▁expect	-4462
▁pelvis	-4463
▁conduct	-4464
▁follows	-4465
▁atypical	-4466
▁cerebellar	-4467
▁cerebellum	-4468
▁morphology	-4469
▁regulation	-4470
iosynostosis	-4471
▁hyperplasia	-4472
▁microcephaly	-4473
To	-4474
▁Cl	-4475
▁gr	-4476
ares	-4477
beta	-4478
ipid	-4479
▁GSD	-4480
▁hot	-4481
▁rol	-4482
▁Hist	-4483
▁germ	-4484
▁phen	-4485
▁Often	-4486
▁Optic	-4487
▁cycle	-4488
▁lumps	-4489
quamous	-4490
▁Noonan	-4491
▁testes	-4492
cription	-4493
▁helpful	-4494
▁surgeon	-4495
ophosphat	-4496
▁neonatal	-4497
▁released	-4498
▁curvature	-4499
▁Management	-4500
▁environment	-4501
opa	-4502
▁cr	-4503
rous	-4504
▁key	-4505
▁nam	-4506
Marie	-4507
Tooth	-4508
arynx	-4509
cious	-4510
ollow	-4511
▁ends	-4512
atives	-4513
▁accom	-4514
arfarin	-4515
utation	-4516
▁Adults	-4517
▁Muscle	-4518
▁entire	-4519
▁albumin	-4520
▁ventric	-4521
▁cellular	-4522
▁scarring	-4523
▁suppress	-4524
ensitivity	-4525
▁Nystagmus	-4526
▁deformities	-4527
▁retinopathy	-4528
CL	-4529
yc	-4530
tra	-4531
ups	-4532
wer	-4533
▁Ag	-4534
▁Muc	-4535
▁cil	-4536
▁tet	-4537
tomas	-4538
▁Part	-4539
▁myel	-4540
▁self	-4541
▁Learn	-4542
▁aortic	-4543
▁epider	-4544
▁liquid	-4545
▁Central	-4546
▁positive	-4547
▁tingling	-4548
for	-4549
rix	-4550
▁ce	-4551
ends	-4552
ledge	-4553
▁gums	-4554
vertic	-4555
▁Chrom	-4556
▁Liver	-4557
▁Neopl	-4558
▁kinds	-4559
▁piece	-4560
▁Causes	-4561
▁vagina	-4562
▁rapidly	-4563
▁recover	-4564
upational	-4565
▁Infection	-4566
▁diaphragm	-4567
▁immediate	-4568
▁temporary	-4569
▁gallbladder	-4570
oencephalopathy	-4571
DDK	-4572
▁2,	-4573
▁PR	-4574
rown	-4575
▁equ	-4576
▁mot	-4577
▁rid	-4578
itian	-4579
where	-4580
▁Post	-4581
▁hips	-4582
▁knee	-4583
▁rout	-4584
uclear	-4585
▁apnea	-4586
▁lifet	-4587
▁tends	-4588
clusion	-4589
▁gangli	-4590
▁mening	-4591
▁Changes	-4592
▁Medicare	-4593
▁aciduria	-4594
▁antibody	-4595
▁separate	-4596
▁populations	-4597
▁z	-4598
gic	-4599
iet	-4600
rosp	-4601
ulop	-4602
▁Ner	-4603
▁lig	-4604
emann	-4605
▁gait	-4606
▁lost	-4607
anging	-4608
oplasm	-4609
▁Arter	-4610
▁heavy	-4611
▁sinus	-4612
▁speak	-4613
▁third	-4614
culitis	-4615
oidosis	-4616
▁formed	-4617
▁burning	-4618
▁autonomic	-4619
▁sensitive	-4620
▁Autoimmune	-4621
▁transmission	-4622
.1	-4623
DH	-4624
TS	-4625
pal	-4626
ucc	-4627
iagn	-4628
ndom	-4629
▁Eye	-4630
▁RNA	-4631
▁ten	-4632
▁thym	-4633
aments	-4634
ogenic	-4635
olytic	-4636
▁space	-4637
dominal	-4638
tensive	-4639
▁inflam	-4640
▁target	-4641
▁traits	-4642
▁travel	-4643
▁benefit	-4644
▁machine	-4645
dysplasia	-4646
▁evidence	-4647
▁injected	-4648
▁menstrual	-4649
▁vertebral	-4650
▁eosinophil	-4651
▁successful	-4652
anx	-4653
▁Du	-4654
▁PH	-4655
11.2	-4656
bert	-4657
come	-4658
gered	-4659
lopec	-4660
mphed	-4661
▁Spond	-4662
▁lives	-4663
odermal	-4664
opamine	-4665
▁Weight	-4666
▁office	-4667
mphedema	-4668
▁damages	-4669
▁decline	-4670
▁phalanx	-4671
▁tubular	-4672
▁embryonic	-4673
▁structural	-4674
▁obstruction	-4675
6,	-4676
CC	-4677
ES	-4678
▁Ir	-4679
arch	-4680
uted	-4681
▁Ass	-4682
▁Fre	-4683
▁Ple	-4684
▁flo	-4685
▁six	-4686
activ	-4687
amino	-4688
arcin	-4689
izure	-4690
▁quit	-4691
▁uric	-4692
olysis	-4693
oracic	-4694
ounter	-4695
▁Avoid	-4696
▁crani	-4697
▁laser	-4698
▁state	-4699
arditis	-4700
lopecia	-4701
▁mature	-4702
▁random	-4703
▁devices	-4704
▁covering	-4705
▁bilirubin	-4706
▁triggered	-4707
HS	-4708
ug	-4709
▁11	-4710
ptic	-4711
▁Cal	-4712
▁syn	-4713
▁carb	-4714
▁five	-4715
▁heat	-4716
▁prec	-4717
uality	-4718
▁thumb	-4719
ofacial	-4720
▁images	-4721
▁nearby	-4722
▁polyps	-4723
oplantar	-4724
richosis	-4725
▁wasting	-4726
▁lifetime	-4727
oarthritis	-4728
▁Medicines	-4729
▁Mitochond	-4730
▁knowledge	-4731
▁remaining	-4732
▁complement	-4733
leb	-4734
oles	-4735
rays	-4736
yria	-4737
▁Get	-4738
▁Ser	-4739
onych	-4740
▁hall	-4741
▁lips	-4742
▁links	-4743
▁minor	-4744
▁mucus	-4745
▁System	-4746
▁reflux	-4747
▁fragile	-4748
oglobulin	-4749
▁aneurysm	-4750
▁catheter	-4751
▁detected	-4752
▁protective	-4753
▁scientists	-4754
▁hypoglycemia	-4755
itz	-4756
tes	-4757
iter	-4758
▁Two	-4759
▁got	-4760
▁har	-4761
amide	-4762
ardia	-4763
▁Sens	-4764
▁free	-4765
▁sequ	-4766
▁upon	-4767
unting	-4768
▁Cardi	-4769
▁disse	-4770
▁fiber	-4771
ependent	-4772
▁dilated	-4773
▁discuss	-4774
▁hemiple	-4775
▁reduces	-4776
▁advanced	-4777
▁believed	-4778
▁reducing	-4779
▁countries	-4780
▁communication	-4781
▁Cryptorchidism	-4782
▁characteristics	-4783
ods	-4784
ori	-4785
ampt	-4786
icho	-4787
orea	-4788
▁Dry	-4789
▁Sup	-4790
▁toe	-4791
romas	-4792
which	-4793
▁FGFR	-4794
▁Head	-4795
▁Only	-4796
▁cerv	-4797
▁chee	-4798
▁fash	-4799
▁warm	-4800
▁raise	-4801
▁sides	-4802
▁visit	-4803
▁Visual	-4804
▁animal	-4805
▁scient	-4806
asthenia	-4807
entially	-4808
▁fashion	-4809
▁hepatic	-4810
▁travels	-4811
▁expected	-4812
transferase	-4813
▁Strabismus	-4814
▁osteochond	-4815
fibromatosis	-4816
▁deterioration	-4817
LI	-4818
lor	-4819
▁70	-4820
sure	-4821
▁LDL	-4822
▁Pag	-4823
▁Tra	-4824
arpal	-4825
illed	-4826
▁Prom	-4827
▁nails	-4828
▁fruits	-4829
▁valves	-4830
▁chances	-4831
▁version	-4832
▁accompan	-4833
▁experien	-4834
▁inserted	-4835
▁materials	-4836
▁fingernails	-4837
xia	-4838
▁CY	-4839
moid	-4840
omia	-4841
vuls	-4842
ipple	-4843
binism	-4844
▁First	-4845
▁disco	-4846
▁outer	-4847
arthria	-4848
▁manage	-4849
▁ulcers	-4850
▁viewed	-4851
▁macular	-4852
▁picture	-4853
producing	-4854
▁neurolog	-4855
▁dietitian	-4856
▁vertebrae	-4857
▁Peripheral	-4858
▁duplication	-4859
//	-4860
PV	-4861
://	-4862
chy	-4863
sin	-4864
▁16	-4865
▁HD	-4866
resp	-4867
▁CDC	-4868
▁gir	-4869
▁hom	-4870
▁htt	-4871
▁Down	-4872
▁coma	-4873
▁Immun	-4874
▁scans	-4875
▁celiac	-4876
▁cramps	-4877
▁source	-4878
▁overlap	-4879
▁trisomy	-4880
▁everyone	-4881
▁interest	-4882
▁Prominent	-4883
oor	-4884
ped	-4885
best	-4886
rand	-4887
▁And	-4888
▁Vit	-4889
▁vol	-4890
duced	-4891
ellig	-4892
ength	-4893
estig	-4894
grams	-4895
ippel	-4896
▁fain	-4897
▁lice	-4898
ionals	-4899
ologic	-4900
▁Hydro	-4901
▁Paget	-4902
▁antic	-4903
▁doses	-4904
▁rigid	-4905
▁stone	-4906
reflexia	-4907
▁routine	-4908
▁urinate	-4909
elligence	-4910
▁Examples	-4911
▁attached	-4912
▁attaches	-4913
▁avoiding	-4914
▁interact	-4915
▁previous	-4916
▁variable	-4917
▁recurring	-4918
▁tiredness	-4919
▁Medications	-4920
▁infertility	-4921
▁hy	-4922
iffe	-4923
orus	-4924
▁Fib	-4925
▁Her	-4926
▁iod	-4927
ulses	-4928
icardi	-4929
▁Found	-4930
▁NIDDK	-4931
▁obese	-4932
▁stick	-4933
▁trunk	-4934
▁Options	-4935
▁initial	-4936
▁sweating	-4937
▁Abdominal	-4938
▁Arthritis	-4939
▁amyloidosis	-4940
▁potentially	-4941
ify	-4942
jur	-4943
agia	-4944
asts	-4945
imet	-4946
▁End	-4947
▁Out	-4948
▁Pan	-4949
▁dye	-4950
▁obs	-4951
▁vul	-4952
alact	-4953
arsal	-4954
ymmet	-4955
▁easy	-4956
▁fund	-4957
▁hold	-4958
▁http	-4959
hetase	-4960
ilical	-4961
lopian	-4962
ogonad	-4963
▁basal	-4964
▁mostly	-4965
▁return	-4966
▁yellow	-4967
gression	-4968
iagnosed	-4969
▁itching	-4970
▁magnetic	-4971
▁protects	-4972
▁confusion	-4973
▁injection	-4974
▁narrowing	-4975
▁suggested	-4976
▁Deficiency	-4977
▁containing	-4978
▁scientific	-4979
elangiectasia	-4980
MA	-4981
bi	-4982
▁65	-4983
▁Ov	-4984
ands	-4985
arco	-4986
arts	-4987
neur	-4988
▁Use	-4989
▁Keep	-4990
▁bran	-4991
▁fiss	-4992
inuria	-4993
methyl	-4994
▁Older	-4995
▁mtDNA	-4996
rection	-4997
▁angina	-4998
▁mosaic	-4999
complete	-5000
otension	-5001
▁Aicardi	-5002
▁overall	-5003
▁worsens	-5004
▁arterios	-5005
▁conducts	-5006
▁consists	-5007
▁parasite	-5008
▁Depressed	-5009
▁psoriasis	-5010
▁controlled	-5011
▁expectancy	-5012
▁infectious	-5013
▁generalized	-5014
▁epidermolysis	-5015
top	-5016
▁MT	-5017
▁ans	-5018
▁aud	-5019
ctase	-5020
ready	-5021
▁COPD	-5022
▁rupt	-5023
arcole	-5024
▁Sleep	-5025
▁invad	-5026
▁punct	-5027
▁airway	-5028
▁layers	-5029
▁aspirin	-5030
▁numbers	-5031
▁ongoing	-5032
odialysis	-5033
▁consider	-5034
▁cortisol	-5035
▁glomerul	-5036
▁removing	-5037
▁Hepatitis	-5038
▁dangerous	-5039
▁Foundation	-5040
▁colorectal	-5041
▁dyskinesia	-5042
amptodactyly	-5043
BP	-5044
EG	-5045
dy	-5046
▁Pe	-5047
▁SP	-5048
▁Sj	-5049
Barr	-5050
aken	-5051
ault	-5052
caus	-5053
▁Abs	-5054
▁Mic	-5055
▁enc	-5056
▁rod	-5057
iques	-5058
range	-5059
▁plus	-5060
appear	-5061
isting	-5062
▁Brain	-5063
▁defic	-5064
▁epiph	-5065
▁nevus	-5066
▁touch	-5067
astatic	-5068
▁childs	-5069
▁design	-5070
▁Current	-5071
▁Cushing	-5072
▁Insulin	-5073
▁already	-5074
▁chondro	-5075
▁survival	-5076
▁Infantile	-5077
▁conscious	-5078
▁occupational	-5079
aut	-5080
peb	-5081
▁Eh	-5082
yses	-5083
▁Ach	-5084
▁Any	-5085
▁Don	-5086
▁situ	-5087
isters	-5088
omelic	-5089
oscope	-5090
pebral	-5091
▁aging	-5092
▁folds	-5093
▁loose	-5094
▁point	-5095
tenance	-5096
▁agents	-5097
▁reflex	-5098
▁Ovarian	-5099
cutaneous	-5100
phosphate	-5101
rogenesis	-5102
▁findings	-5103
▁indicate	-5104
▁pathways	-5105
▁standing	-5106
▁myoclonus	-5107
▁Chromosome	-5108
▁Hypoplastic	-5109
EB	-5110
sia	-5111
athe	-5112
iral	-5113
▁pus	-5114
ivary	-5115
▁dose	-5116
ranial	-5117
▁train	-5118
oclonic	-5119
othorax	-5120
▁stools	-5121
iferation	-5122
sensitive	-5123
▁Encephal	-5124
▁Prostate	-5125
functional	-5126
▁techniques	-5127
▁prescription	-5128
▁GA	-5129
▁od	-5130
free	-5131
ores	-5132
reak	-5133
▁25%	-5134
▁Beh	-5135
▁Cho	-5136
▁Tet	-5137
▁ray	-5138
leted	-5139
▁Horm	-5140
▁circ	-5141
▁deli	-5142
▁next	-5143
▁sons	-5144
▁round	-5145
ocortic	-5146
onychia	-5147
▁ankles	-5148
▁plasma	-5149
ifferent	-5150
▁article	-5151
▁centers	-5152
arcolepsy	-5153
▁analysis	-5154
▁estrogen	-5155
▁inflamed	-5156
▁minerals	-5157
▁services	-5158
▁slightly	-5159
▁ichthyosis	-5160
▁scleroderma	-5161
▁contaminated	-5162
17	-5163
pes	-5164
▁HLA	-5165
▁PDQ	-5166
▁Tur	-5167
▁eth	-5168
▁rub	-5169
afety	-5170
axial	-5171
ively	-5172
omnia	-5173
quent	-5174
▁heal	-5175
▁Melan	-5176
▁excre	-5177
▁stret	-5178
ilities	-5179
▁copper	-5180
osarcoma	-5181
▁fathers	-5182
▁forward	-5183
▁weakened	-5184
abl	-5185
mop	-5186
otr	-5187
pit	-5188
gren	-5189
▁Ver	-5190
▁cham	-5191
▁orig	-5192
▁sore	-5193
common	-5194
ickets	-5195
rences	-5196
▁actin	-5197
▁began	-5198
▁seems	-5199
binding	-5200
▁Distal	-5201
▁Eating	-5202
▁Langer	-5203
▁program	-5204
▁approved	-5205
▁bruising	-5206
▁coughing	-5207
▁continues	-5208
▁overactive	-5209
▁variations	-5210
ministration	-5211
▁contractions	-5212
HL	-5213
Dan	-5214
MRI	-5215
▁Te	-5216
aden	-5217
▁Add	-5218
chain	-5219
ontia	-5220
rokes	-5221
▁UTIs	-5222
▁writ	-5223
bestos	-5224
▁Thick	-5225
▁cramp	-5226
▁phase	-5227
neurons	-5228
thyroid	-5229
▁divide	-5230
▁humans	-5231
▁stored	-5232
▁forming	-5233
▁network	-5234
▁ophthal	-5235
▁extremely	-5236
▁persistent	-5237
▁regulating	-5238
▁keratoderma	-5239
▁maintenance	-5240
▁noncancerous	-5241
▁Brachydactyly	-5242
ASH	-5243
mpt	-5244
urs	-5245
▁MY	-5246
load	-5247
uric	-5248
▁Fal	-5249
▁Fan	-5250
algia	-5251
aster	-5252
atase	-5253
elves	-5254
ezing	-5255
isone	-5256
oneph	-5257
▁orth	-5258
Danlos	-5259
▁aimed	-5260
▁roles	-5261
▁toler	-5262
▁Ehlers	-5263
▁Fancon	-5264
▁height	-5265
▁neurom	-5266
▁recent	-5267
▁channel	-5268
dependent	-5269
osylation	-5270
▁Skeletal	-5271
▁warfarin	-5272
dysplastic	-5273
▁aneurysms	-5274
▁cutaneous	-5275
▁noticeable	-5276
▁processing	-5277
▁relatively	-5278
▁involvement	-5279
▁maintaining	-5280
GH	-5281
LN	-5282
III	-5283
ara	-5284
nel	-5285
rid	-5286
culo	-5287
▁lax	-5288
light	-5289
scape	-5290
ximal	-5291
▁asse	-5292
▁educ	-5293
▁sept	-5294
ocular	-5295
▁empty	-5296
▁since	-5297
▁sweat	-5298
▁thems	-5299
▁works	-5300
oglobin	-5301
omatous	-5302
portion	-5303
uterine	-5304
▁Spinal	-5305
▁elbows	-5306
▁father	-5307
▁multip	-5308
▁endomet	-5309
▁nuclear	-5310
▁Diarrhea	-5311
▁neuronal	-5312
▁sequence	-5313
olipidosis	-5314
▁Cerebellar	-5315
▁themselves	-5316
loproliferative	-5317
enn	-5318
tid	-5319
▁MS	-5320
airs	-5321
feld	-5322
ouse	-5323
rint	-5324
▁ALS	-5325
▁PKD	-5326
▁bas	-5327
ashim	-5328
place	-5329
riers	-5330
▁Bart	-5331
▁bath	-5332
▁gangl	-5333
▁Gastro	-5334
▁Hashim	-5335
▁behind	-5336
▁consum	-5337
▁intera	-5338
▁stores	-5339
cythemia	-5340
▁Fanconi	-5341
▁Hunting	-5342
▁jaundice	-5343
▁hemorrhagic	-5344
▁specializes	-5345
▁Mitochondrial	-5346
▁immunoglobulin	-5347
FD	-5348
SS	-5349
can	-5350
nar	-5351
pre	-5352
▁Py	-5353
nder	-5354
oked	-5355
osup	-5356
igare	-5357
ococc	-5358
posis	-5359
▁link	-5360
▁pale	-5361
▁toen	-5362
▁abuse	-5363
▁teens	-5364
herited	-5365
▁Taking	-5366
▁access	-5367
▁answer	-5368
▁degree	-5369
▁moving	-5370
▁school	-5371
yndromic	-5372
▁samples	-5373
▁swallow	-5374
▁Neoplasm	-5375
▁maternal	-5376
▁periodic	-5377
▁restrict	-5378
▁steroids	-5379
deficiency	-5380
▁carnitine	-5381
▁hemophilia	-5382
▁peritoneal	-5383
▁transmitted	-5384
▁institutions	-5385
▁pigmentation	-5386
▁consciousness	-5387
▁Spinocerebellar	-5388
Ch	-5389
NIH	-5390
cor	-5391
▁24	-5392
▁90	-5393
ered	-5394
▁AMD	-5395
▁Ast	-5396
▁adj	-5397
arfan	-5398
borne	-5399
rains	-5400
▁Kyph	-5401
▁Thin	-5402
▁boys	-5403
▁Injur	-5404
▁chain	-5405
cluding	-5406
hepatic	-5407
▁capill	-5408
▁iodine	-5409
▁rhythm	-5410
unctions	-5411
▁Thyroid	-5412
▁cranial	-5413
▁newborn	-5414
▁removes	-5415
ropoietic	-5416
▁accident	-5417
▁diabetic	-5418
▁dopamine	-5419
▁prenatal	-5420
▁programs	-5421
▁anomalies	-5422
ondroplasia	-5423
▁arteriosus	-5424
▁synthetase	-5425
pigmentation	-5426
▁nonfunctional	-5427
▁susceptibility	-5428
OD	-5429
bil	-5430
but	-5431
kel	-5432
▁By	-5433
▁Ol	-5434
▁mg	-5435
rink	-5436
urns	-5437
▁Lip	-5438
rachn	-5439
▁Oral	-5440
▁prop	-5441
▁seek	-5442
phagia	-5443
▁today	-5444
etrosis	-5445
pecific	-5446
▁Within	-5447
▁doesnt	-5448
▁object	-5449
▁regard	-5450
▁shaped	-5451
▁endothe	-5452
▁meaning	-5453
▁quality	-5454
▁investig	-5455
▁painless	-5456
▁squamous	-5457
▁disappear	-5458
▁retention	-5459
▁scoliosis	-5460
▁triglycer	-5461
▁hemorrhage	-5462
▁interferes	-5463
▁disturbance	-5464
▁microscopic	-5465
▁Sensorineural	-5466
ik	-5467
affe	-5468
roma	-5469
sues	-5470
▁Pot	-5471
▁our	-5472
alker	-5473
icken	-5474
▁Lact	-5475
▁athe	-5476
rombin	-5477
▁Lower	-5478
▁gives	-5479
▁meals	-5480
▁sharp	-5481
▁whole	-5482
▁Benign	-5483
▁Marfan	-5484
▁establ	-5485
▁ethnic	-5486
▁poorly	-5487
▁search	-5488
▁underl	-5489
mobility	-5490
▁Hodgkin	-5491
agulation	-5492
lammation	-5493
thyroidism	-5494
▁palpebral	-5495
steopetrosis	-5496
▁posteriorly	-5497
▁specifically	-5498
▁translocation	-5499
20	-5500
vo	-5501
eds	-5502
iol	-5503
isp	-5504
nih	-5505
▁1-	-5506
▁Gl	-5507
▁VI	-5508
apse	-5509
clic	-5510
ucle	-5511
▁Bil	-5512
▁Fat	-5513
▁KRT	-5514
▁Sub	-5515
▁sul	-5516
ately	-5517
irsch	-5518
tharg	-5519
▁Limb	-5520
▁sacs	-5521
▁sial	-5522
ingles	-5523
▁Prote	-5524
▁amyot	-5525
▁canal	-5526
▁cryst	-5527
▁germs	-5528
causing	-5529
ception	-5530
colored	-5531
▁Bronch	-5532
▁Wilson	-5533
▁eyelid	-5534
▁length	-5535
▁placed	-5536
▁rather	-5537
arcinoma	-5538
opathies	-5539
▁shingles	-5540
▁suddenly	-5541
▁thinking	-5542
▁describes	-5543
▁eyelashes	-5544
▁regularly	-5545
▁regulates	-5546
▁inhibitors	-5547
▁spasticity	-5548
▁compression	-5549
▁intelligence	-5550
3-	-5551
EM	-5552
ati	-5553
lot	-5554
rod	-5555
▁AN	-5556
bone	-5557
poly	-5558
self	-5559
wann	-5560
with	-5561
▁Att	-5562
▁big	-5563
▁oss	-5564
abies	-5565
ectus	-5566
▁Diet	-5567
▁Wolf	-5568
▁verm	-5569
ipidus	-5570
stones	-5571
▁stops	-5572
counter	-5573
ropenia	-5574
▁Facial	-5575
▁infest	-5576
icanthus	-5577
▁Frontal	-5578
▁Protein	-5579
▁portion	-5580
▁redness	-5581
▁studying	-5582
▁anesthesia	-5583
ondrogenesis	-5584
▁encephalitis	-5585
▁hypophosphat	-5586
rog	-5587
ugh	-5588
▁Cy	-5589
▁Kl	-5590
prol	-5591
ured	-5592
▁dra	-5593
▁gam	-5594
▁lat	-5595
ocyst	-5596
stein	-5597
▁aren	-5598
▁fish	-5599
▁tens	-5600
arotid	-5601
microg	-5602
struct	-5603
▁Malar	-5604
▁aware	-5605
▁goals	-5606
▁groin	-5607
▁looks	-5608
▁serum	-5609
malonic	-5610
▁grants	-5611
▁passes	-5612
▁smooth	-5613
remature	-5614
▁typical	-5615
▁albinism	-5616
▁impulses	-5617
▁invaders	-5618
▁skeleton	-5619
▁influence	-5620
▁shoulders	-5621
▁Huntington	-5622
▁hemiplegic	-5623
microcephaly	-5624
▁pathologist	-5625
▁ventricular	-5626
www	-5627
▁Wa	-5628
airy	-5629
avir	-5630
ding	-5631
elch	-5632
odic	-5633
▁cap	-5634
▁mix	-5635
arden	-5636
aulty	-5637
rance	-5638
virus	-5639
▁Alag	-5640
▁fail	-5641
alipes	-5642
health	-5643
onsive	-5644
▁Males	-5645
▁menop	-5646
▁thigh	-5647
estasis	-5648
▁Graves	-5649
▁choose	-5650
heochrom	-5651
oprotein	-5652
▁Complic	-5653
▁Instead	-5654
▁clearly	-5655
▁nucleus	-5656
▁Alagille	-5657
▁blisters	-5658
▁majority	-5659
▁Depending	-5660
obstruction	-5661
▁pigmentosa	-5662
▁cardiovascular	-5663
-6	-5664
24	-5665
3,	-5666
CE	-5667
OR	-5668
aki	-5669
oul	-5670
▁ED	-5671
▁IE	-5672
ades	-5673
mine	-5674
obia	-5675
plit	-5676
uity	-5677
yros	-5678
▁Tox	-5679
▁bos	-5680
▁ste	-5681
▁tun	-5682
▁ven	-5683
agang	-5684
ended	-5685
onism	-5686
otrop	-5687
raxia	-5688
▁Obes	-5689
▁chin	-5690
▁cone	-5691
ything	-5692
▁metac	-5693
▁resol	-5694
hydroxy	-5695
▁Ptosis	-5696
▁Sudden	-5697
irrhosis	-5698
iversity	-5699
▁divided	-5700
▁lateral	-5701
▁Diabetic	-5702
▁Dystonia	-5703
▁clothing	-5704
▁toenails	-5705
▁uncommon	-5706
▁accompanied	-5707
▁personality	-5708
▁intervention	-5709
▁Complications	-5710
BA	-5711
CR	-5712
PL	-5713
CAT	-5714
ipe	-5715
ope	-5716
▁PT	-5717
▁Qu	-5718
berg	-5719
etal	-5720
iden	-5721
▁Age	-5722
▁Gly	-5723
▁RLS	-5724
▁SCN	-5725
▁cre	-5726
▁mes	-5727
asses	-5728
ifida	-5729
itral	-5730
▁rule	-5731
ullary	-5732
▁prone	-5733
riction	-5734
▁Vision	-5735
▁delays	-5736
▁ductus	-5737
▁gotten	-5738
▁harder	-5739
▁relief	-5740
▁unless	-5741
▁useful	-5742
▁Arrhyth	-5743
▁Obesity	-5744
▁Prevent	-5745
▁Talipes	-5746
▁bossing	-5747
▁fistula	-5748
pitations	-5749
▁carbohyd	-5750
▁Pituitary	-5751
dosteronism	-5752
▁phosphorus	-5753
▁Ventricular	-5754
▁Hydrocephalus	-5755
▁calcification	-5756
▁hydrocephalus	-5757
CP	-5758
aff	-5759
ese	-5760
▁Ma	-5761
▁sn	-5762
▁wa	-5763
edic	-5764
ofus	-5765
olic	-5766
▁Bow	-5767
▁Sin	-5768
▁lic	-5769
inter	-5770
▁oxid	-5771
▁twit	-5772
edness	-5773
urance	-5774
versus	-5775
▁Retin	-5776
▁peric	-5777
gnathia	-5778
laucoma	-5779
▁concer	-5780
▁weaken	-5781
asticity	-5782
▁anomaly	-5783
▁looking	-5784
▁somatic	-5785
osuppress	-5786
unctional	-5787
▁Anything	-5788
▁allergic	-5789
▁androgen	-5790
▁pyruvate	-5791
▁speaking	-5792
▁yourself	-5793
▁cataracts	-5794
▁confirmed	-5795
▁fallopian	-5796
▁relatives	-5797
▁bronchitis	-5798
▁synostosis	-5799
▁stimulation	-5800
▁Osteoporosis	-5801
▁Microphthalmia	-5802
CM	-5803
CS	-5804
EX	-5805
RNA	-5806
ioc	-5807
rex	-5808
urm	-5809
urt	-5810
▁Ax	-5811
▁Ca	-5812
▁PA	-5813
awas	-5814
hens	-5815
iant	-5816
mond	-5817
oric	-5818
▁lot	-5819
▁pup	-5820
ators	-5821
irdle	-5822
thern	-5823
▁novo	-5824
▁retr	-5825
ptosis	-5826
▁Chest	-5827
▁Kawas	-5828
▁Robin	-5829
▁Under	-5830
▁drops	-5831
▁edema	-5832
▁vitre	-5833
▁words	-5834
idrosis	-5835
iplegia	-5836
▁acuity	-5837
▁assist	-5838
▁drinks	-5839
▁extent	-5840
▁faulty	-5841
▁issues	-5842
rospinal	-5843
▁consult	-5844
▁heterot	-5845
▁lasting	-5846
▁nursing	-5847
▁restore	-5848
▁tremors	-5849
including	-5850
ocythemia	-5851
▁Kawasaki	-5852
▁accounts	-5853
▁flexible	-5854
▁hormonal	-5855
▁rigidity	-5856
responsive	-5857
▁insipidus	-5858
▁nephrotic	-5859
▁technician	-5860
▁nonsyndromic	-5861
kal	-5862
osc	-5863
ietz	-5864
olin	-5865
part	-5866
yloc	-5867
▁ACT	-5868
▁Dam	-5869
▁Ref	-5870
▁cyc	-5871
▁fri	-5872
▁job	-5873
ocyte	-5874
▁Baby	-5875
▁wind	-5876
gative	-5877
girdle	-5878
olipid	-5879
otrans	-5880
▁Every	-5881
▁Leigh	-5882
▁Pectus	-5883
▁granul	-5884
▁chicken	-5885
scoliosis	-5886
▁anything	-5887
congenital	-5888
oradically	-5889
▁shortened	-5890
▁surrounds	-5891
▁diagnostic	-5892
▁regression	-5893
▁sensations	-5894
▁prediabetes	-5895
▁transcription	-5896
▁atherosclerosis	-5897
car	-5898
enic	-5899
iari	-5900
otin	-5901
reen	-5902
▁Ste	-5903
▁jer	-5904
▁www	-5905
anged	-5906
bacco	-5907
ouble	-5908
rates	-5909
teryg	-5910
▁Weak	-5911
▁tick	-5912
▁urea	-5913
▁wear	-5914
actant	-5915
▁Usher	-5916
▁xanth	-5917
▁circul	-5918
ithelial	-5919
mutation	-5920
position	-5921
terygium	-5922
▁fibrill	-5923
▁passing	-5924
▁rickets	-5925
▁simplex	-5926
▁tobacco	-5927
▁overload	-5928
▁vaccines	-5929
▁Premature	-5930
▁Screening	-5931
▁menopause	-5932
▁paroxysmal	-5933
▁arrhythmias	-5934
▁nephropathy	-5935
▁transfusions	-5936
▁glycosylation	-5937
gus	-5938
men	-5939
▁AB	-5940
loss	-5941
rils	-5942
▁Exp	-5943
▁Its	-5944
▁dro	-5945
▁fem	-5946
▁hGH	-5947
▁sph	-5948
anine	-5949
break	-5950
▁alve	-5951
▁atom	-5952
▁phot	-5953
▁perox	-5954
▁somet	-5955
▁tears	-5956
▁Absent	-5957
▁Hemoch	-5958
▁obtain	-5959
▁repeat	-5960
▁spaced	-5961
▁turned	-5962
▁keeping	-5963
▁seizure	-5964
▁sources	-5965
▁steroid	-5966
▁strokes	-5967
diagnosed	-5968
▁arterial	-5969
▁lymphatic	-5970
▁absorption	-5971
▁incomplete	-5972
▁destruction	-5973
▁enlargement	-5974
▁radioactive	-5975
▁complication	-5976
▁contractures	-5977
▁sensorineural	-5978
▁Hemochromatosis	-5979
UR	-5980
tia	-5981
uck	-5982
ush	-5983
▁CM	-5984
clus	-5985
losp	-5986
rier	-5987
▁FOX	-5988
▁irr	-5989
▁Char	-5990
▁acet	-5991
▁meal	-5992
▁rear	-5993
abolic	-5994
acanth	-5995
coming	-5996
mporal	-5997
▁Alpha	-5998
▁Ewing	-5999
▁cutis	-6000
▁girls	-6001
▁moist	-6002
▁nares	-6003
▁topic	-6004
opathic	-6005
ophthal	-6006
fibrosis	-6007
osterone	-6008
▁ganglia	-6009
▁reports	-6010
andibular	-6011
ogonadism	-6012
▁distress	-6013
▁fainting	-6014
▁reflexes	-6015
▁myoclonic	-6016
▁reductase	-6017
▁supplement	-6018
▁Generalized	-6019
▁Clinodactyly	-6020
▁Hepatomegaly	-6021
22	-6022
ora	-6023
▁2)	-6024
dose	-6025
erts	-6026
icle	-6027
onge	-6028
▁Are	-6029
▁Sal	-6030
▁cit	-6031
▁sil	-6032
▁gout	-6033
▁kind	-6034
olemia	-6035
▁1,000	-6036
▁Crani	-6037
▁Press	-6038
▁Trich	-6039
▁Urine	-6040
▁basis	-6041
▁chlor	-6042
▁cream	-6043
▁lobes	-6044
▁palms	-6045
▁follic	-6046
▁tender	-6047
▁ureter	-6048
▁Vitamin	-6049
▁blister	-6050
▁blurred	-6051
▁explain	-6052
creatitis	-6053
▁Pressure	-6054
▁cramping	-6055
▁salivary	-6056
▁Nutrition	-6057
▁University	-6058
▁physically	-6059
▁psychiatric	-6060
▁Macrocephaly	-6061
5-	-6062
GA	-6063
PT	-6064
do	-6065
ene	-6066
ple	-6067
utz	-6068
xin	-6069
▁2-	-6070
▁Mc	-6071
ofib	-6072
▁Cow	-6073
▁LAM	-6074
▁LCH	-6075
▁Mer	-6076
▁amp	-6077
idesp	-6078
oides	-6079
▁Beta	-6080
▁Chem	-6081
▁Deep	-6082
▁Mild	-6083
▁Mill	-6084
▁diff	-6085
▁meet	-6086
▁mood	-6087
▁node	-6088
▁rise	-6089
change	-6090
iamine	-6091
imosis	-6092
▁Femal	-6093
▁focus	-6094
▁moves	-6095
▁pills	-6096
▁protr	-6097
▁soles	-6098
▁twice	-6099
ilation	-6100
otensin	-6101
▁asleep	-6102
▁differ	-6103
▁stimul	-6104
iability	-6105
▁Retinal	-6106
▁astrocy	-6107
▁lipofus	-6108
▁subunit	-6109
▁ureters	-6110
▁wheelch	-6111
idespread	-6112
kinsonism	-6113
▁anterior	-6114
▁asbestos	-6115
▁mistaken	-6116
calcinosis	-6117
▁gastritis	-6118
▁retrieved	-6119
▁determined	-6120
▁flattening	-6121
▁injections	-6122
▁mechanisms	-6123
▁pancreatic	-6124
▁ulcerative	-6125
▁Cholesterol	-6126
▁gastroenter	-6127
▁improvement	-6128
▁Camptodactyly	-6129
▁cerebrospinal	-6130
▁Administration	-6131
VM	-6132
rof	-6133
sol	-6134
▁ol	-6135
tomy	-6136
▁Atr	-6137
▁CHD	-6138
▁Mon	-6139
▁nec	-6140
birth	-6141
hypop	-6142
imens	-6143
inger	-6144
mphal	-6145
rateg	-6146
▁appl	-6147
▁mast	-6148
▁runs	-6149
▁scre	-6150
isions	-6151
▁Duane	-6152
▁Inter	-6153
▁lines	-6154
▁tuber	-6155
letions	-6156
▁Sjgren	-6157
▁cheeks	-6158
▁corner	-6159
▁possib	-6160
▁sickle	-6161
▁signal	-6162
▁amyloid	-6163
▁episode	-6164
▁listing	-6165
▁calories	-6166
microgyria	-6167
▁epidermis	-6168
▁exercises	-6169
▁partially	-6170
▁contracture	-6171
▁computerized	-6172
▁disturbances	-6173
▁Developmental	-6174
oz	-6175
abd	-6176
opy	-6177
uff	-6178
▁Em	-6179
▁Ni	-6180
hest	-6181
rome	-6182
▁ABC	-6183
▁exh	-6184
▁tip	-6185
▁wet	-6186
ander	-6187
inine	-6188
▁Cone	-6189
▁clin	-6190
▁murm	-6191
hypert	-6192
illain	-6193
omotor	-6194
▁Antib	-6195
▁Click	-6196
▁Pneum	-6197
▁black	-6198
ditions	-6199
failure	-6200
ileptic	-6201
ochrome	-6202
ortical	-6203
pharoph	-6204
ymmetry	-6205
▁assess	-6206
▁bifida	-6207
▁galact	-6208
▁toward	-6209
▁whites	-6210
iphyseal	-6211
vascular	-6212
▁America	-6213
▁antigen	-6214
▁keratin	-6215
▁divertic	-6216
▁profound	-6217
▁sunlight	-6218
▁defective	-6219
▁neoplasia	-6220
▁occurring	-6221
▁rearrange	-6222
▁vasculitis	-6223
oproteinemia	-6224
▁sarcoidosis	-6225
pharophimosis	-6226
▁retinoblastoma	-6227
LL	-6228
equ	-6229
pen	-6230
▁AT	-6231
▁Acc	-6232
▁blu	-6233
▁fum	-6234
ionic	-6235
terin	-6236
▁Dyst	-6237
▁Gait	-6238
▁Prol	-6239
▁Rest	-6240
▁acts	-6241
▁iris	-6242
▁pack	-6243
▁teen	-6244
▁vent	-6245
alking	-6246
ancies	-6247
escent	-6248
▁Leber	-6249
▁Types	-6250
▁belly	-6251
coordin	-6252
ference	-6253
patient	-6254
uscular	-6255
▁Cowden	-6256
▁carbon	-6257
▁option	-6258
▁safety	-6259
dystonia	-6260
ulinemia	-6261
▁Outlook	-6262
▁charged	-6263
▁lactate	-6264
▁nodules	-6265
▁vaginal	-6266
nutrition	-6267
▁Guillain	-6268
▁balanced	-6269
▁constant	-6270
▁recently	-6271
oscoliosis	-6272
▁mechanism	-6273
▁Intestinal	-6274
▁counseling	-6275
▁irritation	-6276
▁widespread	-6277
▁contributes	-6278
▁specialists	-6279
▁Specifically	-6280
heochromocytoma	-6281
1)	-6282
ED	-6283
PC	-6284
PI	-6285
ECP	-6286
amic	-6287
onto	-6288
risk	-6289
adias	-6290
cardi	-6291
junct	-6292
types	-6293
yloep	-6294
▁AIDS	-6295
▁MECP	-6296
▁Vacc	-6297
▁blue	-6298
▁erup	-6299
chemic	-6300
elitis	-6301
thargy	-6302
ulitis	-6303
▁Guide	-6304
▁Pregn	-6305
▁relie	-6306
▁slows	-6307
▁wrist	-6308
everted	-6309
forming	-6310
ycardia	-6311
▁Dental	-6312
▁Family	-6313
▁easier	-6314
▁toxins	-6315
▁Klippel	-6316
▁monitor	-6317
▁strateg	-6318
▁topical	-6319
otemporal	-6320
▁Bleeding	-6321
▁Elevated	-6322
▁Neonatal	-6323
▁fracture	-6324
▁inversus	-6325
▁regarding	-6326
▁neurologic	-6327
▁pneumothorax	-6328
HO	-6329
IT	-6330
KG	-6331
ept	-6332
isy	-6333
pox	-6334
uts	-6335
▁3.	-6336
▁ju	-6337
ests	-6338
ythe	-6339
▁Kle	-6340
▁Yes	-6341
▁mar	-6342
▁von	-6343
ences	-6344
lymph	-6345
monia	-6346
neuro	-6347
▁mess	-6348
▁ones	-6349
filled	-6350
hydrop	-6351
icians	-6352
nisone	-6353
porter	-6354
urning	-6355
▁Right	-6356
▁atoms	-6357
▁basic	-6358
▁retic	-6359
atrophy	-6360
linemia	-6361
stitial	-6362
▁Patent	-6363
▁ensure	-6364
▁lactic	-6365
▁tunnel	-6366
ediatric	-6367
ractures	-6368
▁Usually	-6369
▁descent	-6370
▁focused	-6371
▁rupture	-6372
▁schwann	-6373
omyositis	-6374
▁Coronary	-6375
▁Lymphoma	-6376
▁bloating	-6377
▁inguinal	-6378
▁Radiation	-6379
▁filaments	-6380
▁polyposis	-6381
▁pterygium	-6382
▁conduction	-6383
▁specialist	-6384
▁cholestasis	-6385
▁immediately	-6386
▁nutritional	-6387
▁Splenomegaly	-6388
▁sporadically	-6389
acanthocytosis	-6390
TD	-6391
vol	-6392
▁33	-6393
▁Fl	-6394
hist	-6395
nith	-6396
stru	-6397
▁bar	-6398
▁der	-6399
▁did	-6400
actin	-6401
osine	-6402
ritin	-6403
▁Gluc	-6404
▁bind	-6405
▁dust	-6406
▁guid	-6407
▁sent	-6408
stable	-6409
▁Large	-6410
▁White	-6411
▁adhes	-6412
▁cilia	-6413
▁lipid	-6414
▁megal	-6415
▁names	-6416
avioral	-6417
steroid	-6418
▁Turner	-6419
▁hollow	-6420
▁inches	-6421
▁poison	-6422
▁prompt	-6423
▁saliva	-6424
▁sounds	-6425
positive	-6426
▁Trouble	-6427
▁oxidase	-6428
▁Acquired	-6429
▁clusters	-6430
▁Malignant	-6431
▁bilateral	-6432
▁digestion	-6433
▁phosphory	-6434
▁remission	-6435
▁Anteverted	-6436
▁Epicanthus	-6437
▁aggressive	-6438
▁components	-6439
▁expression	-6440
▁metacarpal	-6441
▁thickening	-6442
degeneration	-6443
issencephaly	-6444
▁contraction	-6445
▁dislocation	-6446
▁Occasionally	-6447
▁irritability	-6448
▁lipofuscinosis	-6449
4,	-6450
ew	-6451
▁u	-6452
axy	-6453
bar	-6454
▁35	-6455
▁QT	-6456
▁ca	-6457
13.3	-6458
abry	-6459
atus	-6460
auro	-6461
burg	-6462
eter	-6463
inct	-6464
warf	-6465
▁Alp	-6466
▁DIC	-6467
▁fer	-6468
▁war	-6469
ieger	-6470
inary	-6471
ohist	-6472
orlin	-6473
thase	-6474
third	-6475
▁room	-6476
amines	-6477
anemia	-6478
lation	-6479
▁bumps	-6480
▁ovary	-6481
▁tasks	-6482
Hodgkin	-6483
nithine	-6484
optosis	-6485
▁Damage	-6486
▁Nausea	-6487
▁Please	-6488
▁assemb	-6489
▁unlike	-6490
escended	-6491
▁aplasia	-6492
▁deleted	-6493
▁tensing	-6494
rocytosis	-6495
structive	-6496
▁Glaucoma	-6497
▁Impaired	-6498
▁blockers	-6499
generative	-6500
▁Currently	-6501
▁compounds	-6502
▁therefore	-6503
▁Limitation	-6504
▁outpatient	-6505
▁interaction	-6506
▁occasionally	-6507
▁hypermobility	-6508
▁corticosteroid	-6509
FS	-6510
IL	-6511
PH	-6512
ki	-6513
cyl	-6514
syn	-6515
▁AF	-6516
▁Sm	-6517
acet	-6518
acid	-6519
amel	-6520
aria	-6521
aste	-6522
chea	-6523
ippl	-6524
room	-6525
tras	-6526
yrim	-6527
▁AAT	-6528
▁APS	-6529
▁Ask	-6530
▁Pet	-6531
▁Tay	-6532
▁ech	-6533
▁ket	-6534
▁pay	-6535
▁urg	-6536
arest	-6537
▁Epid	-6538
▁Rett	-6539
▁lent	-6540
▁prep	-6541
▁rays	-6542
▁worm	-6543
ection	-6544
ivitis	-6545
▁flows	-6546
▁fused	-6547
▁pseud	-6548
▁sport	-6549
etitive	-6550
nicious	-6551
ostasis	-6552
warfism	-6553
▁altern	-6554
▁events	-6555
▁extend	-6556
▁motion	-6557
▁online	-6558
▁record	-6559
▁stabil	-6560
iedemann	-6561
ulopathy	-6562
steroidal	-6563
▁Genetics	-6564
▁Melanoma	-6565
▁agenesis	-6566
▁alopecia	-6567
▁improved	-6568
▁possibly	-6569
▁recurred	-6570
▁sleeping	-6571
▁Hemolytic	-6572
▁insurance	-6573
▁something	-6574
lobulinemia	-6575
▁neuroblastoma	-6576
▁leukodystrophy	-6577
36	-6578
ACT	-6579
▁Bi	-6580
andy	-6581
illi	-6582
iomy	-6583
iors	-6584
itic	-6585
oste	-6586
▁Flu	-6587
▁KCN	-6588
▁pil	-6589
▁sed	-6590
dered	-6591
ilion	-6592
ineal	-6593
olism	-6594
▁Beck	-6595
▁comm	-6596
▁tips	-6597
otonic	-6598
uretic	-6599
▁store	-6600
▁wrong	-6601
hensive	-6602
ostatic	-6603
▁Sparse	-6604
▁autism	-6605
▁cigare	-6606
odigital	-6607
ospadias	-6608
▁Feeding	-6609
▁gradual	-6610
▁promote	-6611
▁shortly	-6612
placement	-6613
▁Medicine	-6614
▁clouding	-6615
▁concentr	-6616
▁paragang	-6617
▁transloc	-6618
▁variants	-6619
esophageal	-6620
▁vermilion	-6621
▁Conditions	-6622
▁Hypertonia	-6623
▁adolescent	-6624
▁generation	-6625
▁differences	-6626
osplenomegaly	-6627
▁coordinating	-6628
ontocerebellar	-6629
▁mucolipidosis	-6630
7,	-6631
BD	-6632
GI	-6633
OT	-6634
CDG	-6635
ket	-6636
lip	-6637
ots	-6638
oyl	-6639
spr	-6640
ysp	-6641
▁et	-6642
anal	-6643
apan	-6644
burn	-6645
pipe	-6646
rees	-6647
▁MYH	-6648
acing	-6649
asive	-6650
atysp	-6651
eryth	-6652
ining	-6653
ostal	-6654
▁Poor	-6655
▁recy	-6656
▁soil	-6657
istant	-6658
sprung	-6659
▁Asian	-6660
▁antit	-6661
▁focal	-6662
▁itchy	-6663
▁lifes	-6664
▁pract	-6665
▁Pseudo	-6666
▁Ultras	-6667
▁chills	-6668
▁lenses	-6669
▁mildly	-6670
▁rectal	-6671
▁trying	-6672
atyspond	-6673
inations	-6674
▁cluster	-6675
▁lactase	-6676
▁product	-6677
▁staging	-6678
ardenburg	-6679
▁anywhere	-6680
▁distinct	-6681
▁facility	-6682
▁punctata	-6683
▁retinitis	-6684
irschsprung	-6685
▁Polycystic	-6686
▁metastatic	-6687
▁thrombosis	-6688
ometaphyseal	-6689
▁Development	-6690
▁endothelial	-6691
▁triglycerides	-6692
▁rehabilitation	-6693
▁Mucopolysacchar	-6694
-4	-6695
ci	-6696
CAD	-6697
ned	-6698
sub	-6699
▁NF	-6700
▁dr	-6701
ique	-6702
osus	-6703
resh	-6704
tice	-6705
▁CNS	-6706
▁Cre	-6707
▁EEG	-6708
▁TTP	-6709
▁bad	-6710
▁mye	-6711
▁raw	-6712
▁sib	-6713
▁web	-6714
genic	-6715
oxide	-6716
teral	-6717
▁Epis	-6718
▁SMAR	-6719
▁aids	-6720
logist	-6721
rypsin	-6722
verteb	-6723
▁Those	-6724
▁cross	-6725
▁image	-6726
▁prion	-6727
▁varic	-6728
lebrand	-6729
ordosis	-6730
ossible	-6731
rophies	-6732
▁Dermat	-6733
▁Myopia	-6734
▁action	-6735
▁enamel	-6736
▁giving	-6737
▁macula	-6738
▁stable	-6739
heumatic	-6740
iectasis	-6741
orphyria	-6742
▁Addison	-6743
▁Bartter	-6744
▁Wolfram	-6745
▁binding	-6746
▁sibling	-6747
▁sinuses	-6748
▁sphinct	-6749
▁Sporadic	-6750
▁Weakness	-6751
▁actually	-6752
▁breaking	-6753
▁checking	-6754
▁compared	-6755
▁compound	-6756
▁insomnia	-6757
▁occurred	-6758
onephritis	-6759
▁Cirrhosis	-6760
▁allergies	-6761
▁carefully	-6762
▁converted	-6763
▁receptors	-6764
▁Willebrand	-6765
▁surgically	-6766
▁Waardenburg	-6767
▁thyroiditis	-6768
▁undescended	-6769
▁Hirschsprung	-6770
▁intermediate	-6771
▁hyperactivity	-6772
dL	-6773
aph	-6774
oto	-6775
cans	-6776
mble	-6777
▁150	-6778
▁75%	-6779
▁Pel	-6780
▁aid	-6781
cytic	-6782
iddle	-6783
ieres	-6784
ouret	-6785
ridox	-6786
tense	-6787
▁Cons	-6788
▁oper	-6789
aining	-6790
lopros	-6791
onvuls	-6792
▁Nerve	-6793
▁falls	-6794
▁gener	-6795
▁keeps	-6796
▁oculo	-6797
▁rates	-6798
▁secre	-6799
affeine	-6800
ophobia	-6801
ourette	-6802
▁Africa	-6803
▁Before	-6804
▁Finger	-6805
▁Second	-6806
▁button	-6807
▁except	-6808
▁mucous	-6809
▁sponge	-6810
transmit	-6811
▁Factors	-6812
▁Hormone	-6813
▁choroid	-6814
▁gastric	-6815
▁helping	-6816
▁implant	-6817
▁managed	-6818
▁purpura	-6819
▁benefits	-6820
▁connects	-6821
▁improves	-6822
▁thoracic	-6823
ficiencies	-6824
ocarcinoma	-6825
▁epiphysis	-6826
▁nystagmus	-6827
▁relations	-6828
▁Ultrasound	-6829
▁disruption	-6830
▁ectodermal	-6831
▁evaluation	-6832
▁narcolepsy	-6833
▁polycystic	-6834
▁testicular	-6835
otransferase	-6836
▁Intrauterine	-6837
▁diaphragmatic	-6838
▁thrombophilia	-6839
loprosencephaly	-6840
▁immunosuppress	-6841
▁thrombocythemia	-6842
14	-6843
MO	-6844
PM	-6845
VT	-6846
aid	-6847
cks	-6848
ley	-6849
▁(4	-6850
▁26	-6851
▁UI	-6852
gluc	-6853
hans	-6854
iley	-6855
itin	-6856
kler	-6857
mark	-6858
onin	-6859
phia	-6860
sect	-6861
vern	-6862
▁Adv	-6863
▁CMT	-6864
▁fif	-6865
binds	-6866
ether	-6867
▁clos	-6868
▁crow	-6869
Walker	-6870
onadal	-6871
oubert	-6872
rittle	-6873
▁Heter	-6874
▁arise	-6875
▁error	-6876
▁exams	-6877
achment	-6878
induced	-6879
pective	-6880
thermia	-6881
▁Angina	-6882
▁Leiden	-6883
▁Miller	-6884
▁ceroid	-6885
▁strain	-6886
moplegia	-6887
outieres	-6888
▁biliary	-6889
▁evident	-6890
▁frontal	-6891
▁intense	-6892
▁reading	-6893
ylocostal	-6894
▁Kyphosis	-6895
▁Tourette	-6896
▁approach	-6897
▁describe	-6898
▁eruption	-6899
▁neutroph	-6900
▁recognize	-6901
▁arrhythmia	-6902
▁blistering	-6903
▁prednisone	-6904
▁relationsh	-6905
▁hypotension	-6906
▁lymphocytic	-6907
▁Hyperreflexia	-6908
▁histiocytosis	-6909
▁insensitivity	-6910
▁malabsorption	-6911
▁mucopolysacchar	-6912
OP	-6913
The	-6914
bed	-6915
exp	-6916
ohn	-6917
ola	-6918
▁PI	-6919
▁jo	-6920
eggs	-6921
leuk	-6922
osum	-6923
rior	-6924
▁Act	-6925
▁Pes	-6926
▁TGF	-6927
▁amn	-6928
▁let	-6929
Tests	-6930
amate	-6931
ience	-6932
optic	-6933
remor	-6934
seous	-6935
small	-6936
stage	-6937
▁Good	-6938
▁derm	-6939
▁page	-6940
▁Using	-6941
▁adequ	-6942
▁adren	-6943
▁argin	-6944
▁feces	-6945
▁penet	-6946
▁prost	-6947
iveness	-6948
rosomia	-6949
▁Babies	-6950
▁branch	-6951
▁lichen	-6952
▁radius	-6953
artments	-6954
▁convert	-6955
▁covered	-6956
▁methods	-6957
▁objects	-6958
▁tendons	-6959
elination	-6960
▁Deafness	-6961
▁Myopathy	-6962
▁cortical	-6963
▁feelings	-6964
▁fullness	-6965
▁synthase	-6966
▁unlikely	-6967
▁unstable	-6968
▁urethral	-6969
spasticity	-6970
ucinations	-6971
▁GeneTests	-6972
▁destroyed	-6973
▁epidermal	-6974
▁parasites	-6975
▁phalanges	-6976
▁Colorectal	-6977
▁amyotrophy	-6978
▁lymphedema	-6979
▁meningitis	-6980
▁myasthenia	-6981
▁strategies	-6982
▁ventricles	-6983
▁Hypertension	-6984
▁intrahepatic	-6985
▁concentration	-6986
▁gangliosidosis	-6987
▁microphthalmia	-6988
AF	-6989
IA	-6990
YY	-6991
CHD	-6992
ads	-6993
▁5.	-6994
▁UV	-6995
▁gy	-6996
akes	-6997
aris	-6998
arms	-6999
omon	-7000
rape	-7001
sequ	-7002
yond	-7003
▁CSF	-7004
▁Ect	-7005
▁aph	-7006
▁nor	-7007
actor	-7008
brile	-7009
oking	-7010
osmia	-7011
▁Angi	-7012
▁coll	-7013
▁cost	-7014
▁hygi	-7015
hydram	-7016
inosis	-7017
▁Angel	-7018
▁added	-7019
▁fibro	-7020
▁macro	-7021
▁solid	-7022
aurosis	-7023
▁Almost	-7024
▁Cystic	-7025
▁deaths	-7026
▁double	-7027
▁gravis	-7028
▁seeing	-7029
specific	-7030
▁Healthy	-7031
▁Hemorrh	-7032
▁Sarcoma	-7033
▁Treated	-7034
▁fissure	-7035
▁myeloma	-7036
▁Dementia	-7037
▁chloride	-7038
▁computed	-7039
▁delivery	-7040
▁performs	-7041
achycardia	-7042
▁education	-7043
▁Langerhans	-7044
▁assistance	-7045
▁recurrence	-7046
▁testosterone	-7047
▁Cardiomyopathy	-7048
BG	-7049
EE	-7050
PR	-7051
SH	-7052
SAN	-7053
ask	-7054
oal	-7055
Sach	-7056
acia	-7057
dent	-7058
icip	-7059
nios	-7060
otes	-7061
phic	-7062
▁120	-7063
▁CYP	-7064
▁ann	-7065
▁pyl	-7066
▁rad	-7067
▁say	-7068
▁tri	-7069
▁vac	-7070
Sachs	-7071
ained	-7072
allen	-7073
arria	-7074
cleft	-7075
erved	-7076
inate	-7077
ontan	-7078
ovent	-7079
▁Vari	-7080
▁Will	-7081
▁gray	-7082
▁laxa	-7083
anosis	-7084
gnetic	-7085
omenon	-7086
rowing	-7087
▁Fried	-7088
▁brown	-7089
▁encou	-7090
▁imbal	-7091
▁Attack	-7092
▁Unlike	-7093
▁clumps	-7094
▁erythe	-7095
▁ingest	-7096
▁matrix	-7097
▁offers	-7098
igestion	-7099
omalacia	-7100
thrombin	-7101
▁Feeling	-7102
▁Females	-7103
▁distrib	-7104
Wiedemann	-7105
functions	-7106
otophobia	-7107
▁creatine	-7108
▁crystals	-7109
▁subtypes	-7110
hydramnios	-7111
▁Shortness	-7112
▁Therefore	-7113
▁glomeruli	-7114
▁malformed	-7115
▁physician	-7116
▁testicles	-7117
▁aspiration	-7118
▁phenomenon	-7119
▁surfactant	-7120
▁Association	-7121
▁coagulation	-7122
▁glucocortic	-7123
▁ossification	-7124
AN	-7125
LU	-7126
TL	-7127
Wh	-7128
ILD	-7129
mar	-7130
▁So	-7131
cial	-7132
idal	-7133
okal	-7134
▁AML	-7135
▁Clo	-7136
▁Enl	-7137
▁IgA	-7138
▁Top	-7139
▁ang	-7140
culos	-7141
iatic	-7142
imple	-7143
issue	-7144
thral	-7145
▁Like	-7146
▁Make	-7147
▁auto	-7148
▁bene	-7149
▁note	-7150
▁real	-7151
aviors	-7152
ercise	-7153
felter	-7154
ording	-7155
siness	-7156
▁Kline	-7157
▁Plate	-7158
▁beans	-7159
▁bring	-7160
▁donor	-7161
▁nurse	-7162
cranial	-7163
healthy	-7164
romatic	-7165
▁Factor	-7166
▁cervix	-7167
▁compre	-7168
▁highly	-7169
▁medium	-7170
▁please	-7171
▁prepar	-7172
▁ranges	-7173
romegaly	-7174
▁Program	-7175
▁ammonia	-7176
▁commerc	-7177
▁pleural	-7178
▁visible	-7179
▁chambers	-7180
▁asymmetry	-7181
▁particles	-7182
opharyngeal	-7183
▁Infectious	-7184
▁continuous	-7185
▁diagnosing	-7186
▁previously	-7187
culoskeletal	-7188
▁Klinefelter	-7189
▁variability	-7190
arathyroidism	-7191
▁palmoplantar	-7192
▁professionals	-7193
WS	-7194
▁0	-7195
CKD	-7196
ams	-7197
iae	-7198
ibr	-7199
tex	-7200
▁FI	-7201
▁PL	-7202
▁SA	-7203
axis	-7204
ione	-7205
osqu	-7206
oxic	-7207
rhea	-7208
roys	-7209
▁HSP	-7210
▁Mil	-7211
▁gli	-7212
▁meg	-7213
▁mor	-7214
▁pul	-7215
ilver	-7216
itory	-7217
ontal	-7218
▁Prof	-7219
▁cage	-7220
▁cate	-7221
▁dont	-7222
▁prot	-7223
avirus	-7224
ctitis	-7225
ipital	-7226
ipment	-7227
ishing	-7228
ociety	-7229
osquit	-7230
▁PDGFR	-7231
▁Tract	-7232
▁inhal	-7233
▁react	-7234
▁sider	-7235
rinogen	-7236
▁10,000	-7237
▁append	-7238
▁gender	-7239
▁herpes	-7240
▁impact	-7241
▁lethal	-7242
▁lipids	-7243
▁public	-7244
▁sports	-7245
▁thymus	-7246
▁Bladder	-7247
▁carotid	-7248
▁changed	-7249
▁choices	-7250
▁corners	-7251
▁fasting	-7252
▁shorter	-7253
▁species	-7254
▁warning	-7255
▁absorbed	-7256
▁allowing	-7257
▁caffeine	-7258
▁destroys	-7259
▁exchange	-7260
▁globulin	-7261
▁hairline	-7262
▁underlie	-7263
adenopathy	-7264
▁Metabolic	-7265
▁behaviors	-7266
▁decreases	-7267
▁equipment	-7268
▁biological	-7269
▁discovered	-7270
▁respective	-7271
▁uncontroll	-7272
▁wheelchair	-7273
▁experienced	-7274
▁threatening	-7275
▁craniofacial	-7276
▁eosinophilic	-7277
▁malnutrition	-7278
▁osteoarthritis	-7279
Ig	-7280
MI	-7281
OC	-7282
gt	-7283
ERL	-7284
aur	-7285
oya	-7286
▁Es	-7287
▁HF	-7288
▁Ho	-7289
AIDS	-7290
dest	-7291
face	-7292
ilis	-7293
rops	-7294
▁ALG	-7295
▁CFS	-7296
▁Lab	-7297
▁Mac	-7298
▁Pol	-7299
▁RAS	-7300
▁suf	-7301
▁unw	-7302
▁wid	-7303
amoya	-7304
edema	-7305
heres	-7306
itser	-7307
reich	-7308
uding	-7309
urned	-7310
▁Calc	-7311
▁Glut	-7312
▁Iron	-7313
▁NASH	-7314
▁Stic	-7315
▁Take	-7316
▁VACT	-7317
▁core	-7318
▁stra	-7319
▁vera	-7320
00,000	-7321
avatum	-7322
carria	-7323
omeres	-7324
orough	-7325
▁Kerat	-7326
▁Motor	-7327
▁colum	-7328
▁beyond	-7329
▁lesion	-7330
araitser	-7331
idepress	-7332
lordosis	-7333
▁Fatigue	-7334
▁Special	-7335
▁VACTERL	-7336
▁degrees	-7337
▁nephron	-7338
▁ordered	-7339
▁scabies	-7340
▁talking	-7341
▁trachea	-7342
Goutieres	-7343
adulthood	-7344
ranuclear	-7345
▁Angelman	-7346
▁Complete	-7347
▁Stickler	-7348
▁breakage	-7349
▁composed	-7350
▁immature	-7351
▁original	-7352
▁replaced	-7353
▁subunits	-7354
proportion	-7355
▁Hashimoto	-7356
▁abilities	-7357
▁amaurosis	-7358
▁excavatum	-7359
▁multiplex	-7360
▁ventricle	-7361
▁Friedreich	-7362
▁activation	-7363
▁exercising	-7364
▁instrument	-7365
▁interested	-7366
▁transports	-7367
ropharyngeal	-7368
▁malfunction	-7369
▁susceptible	-7370
▁parkinsonism	-7371
▁polycythemia	-7372
▁polymicrogyria	-7373
19	-7374
2.	-7375
IF	-7376
Th	-7377
amm	-7378
ded	-7379
eld	-7380
non	-7381
rig	-7382
▁45	-7383
▁MV	-7384
▁PC	-7385
achy	-7386
▁CAG	-7387
▁IBS	-7388
▁fit	-7389
▁sit	-7390
oming	-7391
ulism	-7392
▁Gall	-7393
▁That	-7394
▁craw	-7395
▁fair	-7396
▁mark	-7397
▁sulf	-7398
▁summ	-7399
▁unex	-7400
arburg	-7401
bacher	-7402
lderly	-7403
rapeut	-7404
▁Asper	-7405
▁diets	-7406
▁fresh	-7407
rectile	-7408
▁Epider	-7409
▁Mental	-7410
▁carpal	-7411
▁cyclic	-7412
▁inward	-7413
▁losing	-7414
▁nipple	-7415
▁predis	-7416
▁revers	-7417
▁tricho	-7418
▁Adrenal	-7419
▁History	-7420
▁closely	-7421
▁dentist	-7422
dosterone	-7423
moplantar	-7424
▁Injuries	-7425
▁dividing	-7426
▁embolism	-7427
▁ischemic	-7428
▁myotonia	-7429
▁targeted	-7430
hydropyrim	-7431
▁deviation	-7432
▁inclusion	-7433
▁sphincter	-7434
▁stimulate	-7435
ocystinuria	-7436
▁Pancreatic	-7437
▁cytochrome	-7438
▁distinguish	-7439
▁transporter	-7440
▁carbohydrates	-7441
▁Hypothyroidism	-7442
▁myelodysplastic	-7443
▁spinocerebellar	-7444
23	-7445
RF	-7446
uh	-7447
auc	-7448
ogy	-7449
▁4.	-7450
▁AI	-7451
acyl	-7452
enta	-7453
greg	-7454
oske	-7455
ypic	-7456
▁Eas	-7457
▁Fin	-7458
▁Hol	-7459
▁Ure	-7460
▁fro	-7461
▁lev	-7462
▁uro	-7463
alate	-7464
imize	-7465
ityri	-7466
macro	-7467
ocell	-7468
offin	-7469
onate	-7470
otide	-7471
otomy	-7472
romal	-7473
rotum	-7474
▁ACTH	-7475
▁Kall	-7476
▁acyl	-7477
▁poll	-7478
cerate	-7479
genous	-7480
osamin	-7481
ralogy	-7482
▁Later	-7483
▁Opitz	-7484
▁funda	-7485
▁prior	-7486
▁wound	-7487
alanine	-7488
unately	-7489
▁Bacter	-7490
▁Coffin	-7491
▁Fallot	-7492
▁Parent	-7493
▁Trache	-7494
▁quarts	-7495
▁repres	-7496
cataract	-7497
cortical	-7498
igmented	-7499
myositis	-7500
▁Colitis	-7501
▁Hepatic	-7502
▁scrotum	-7503
ityriasis	-7504
ocarditis	-7505
ocellular	-7506
oskeleton	-7507
umbilical	-7508
▁Inguinal	-7509
▁lifespan	-7510
▁particip	-7511
▁placenta	-7512
▁windpipe	-7513
oglycerate	-7514
▁brainstem	-7515
▁deletions	-7516
▁migration	-7517
▁transient	-7518
ophagocytic	-7519
▁Peritoneal	-7520
▁chickenpox	-7521
▁gallstones	-7522
▁fundamental	-7523
▁lipoprotein	-7524
▁neutropenia	-7525
▁Hypoglycemia	-7526
▁rearrangement	-7527
eed	-7528
elt	-7529
enz	-7530
sup	-7531
ube	-7532
une	-7533
▁75	-7534
ASIL	-7535
SAID	-7536
adel	-7537
atur	-7538
ayne	-7539
ctal	-7540
kins	-7541
mitt	-7542
▁Too	-7543
▁Wer	-7544
▁suc	-7545
aryng	-7546
based	-7547
culoc	-7548
hesis	-7549
lexus	-7550
mphig	-7551
organ	-7552
tific	-7553
urnal	-7554
▁Gauc	-7555
▁Pred	-7556
▁clim	-7557
▁fear	-7558
aturia	-7559
charge	-7560
fusion	-7561
inogen	-7562
iotics	-7563
▁Const	-7564
▁Incon	-7565
▁Since	-7566
▁Stage	-7567
▁cavus	-7568
▁disab	-7569
▁doing	-7570
▁quant	-7571
▁tight	-7572
artment	-7573
ockayne	-7574
rogenic	-7575
ructose	-7576
▁Hernia	-7577
▁Person	-7578
▁Willia	-7579
▁axonal	-7580
▁chorea	-7581
▁circum	-7582
▁embryo	-7583
▁faster	-7584
▁lipase	-7585
▁nearly	-7586
▁rashes	-7587
tificial	-7588
▁Corneal	-7589
▁Gaucher	-7590
▁Macular	-7591
▁Myeloid	-7592
▁Robinow	-7593
▁Society	-7594
▁diffuse	-7595
▁friends	-7596
hydration	-7597
▁eyebrows	-7598
syndactyly	-7599
▁Cutaneous	-7600
▁deformity	-7601
▁extensive	-7602
atyspondyly	-7603
▁Behavioral	-7604
▁repetitive	-7605
▁accumulates	-7606
▁antitrypsin	-7607
▁established	-7608
proliferation	-7609
▁Hemodialysis	-7610
▁Hypertrophic	-7611
▁Inflammation	-7612
▁Osteogenesis	-7613
▁spontaneously	-7614
▁hyperthyroidism	-7615
MG	-7616
NP	-7617
-2-	-7618
RCA	-7619
irt	-7620
ott	-7621
rul	-7622
tte	-7623
ume	-7624
▁FM	-7625
▁GH	-7626
▁Pr	-7627
Bied	-7628
hemo	-7629
inic	-7630
romy	-7631
ulum	-7632
ylos	-7633
▁Fol	-7634
▁Hen	-7635
▁Syn	-7636
▁VUR	-7637
Biedl	-7638
appro	-7639
ardet	-7640
board	-7641
ellwe	-7642
morph	-7643
oside	-7644
▁ARDS	-7645
▁Axen	-7646
▁Cont	-7647
▁band	-7648
▁comb	-7649
▁cult	-7650
▁hole	-7651
▁tall	-7652
arches	-7653
benign	-7654
elines	-7655
epithe	-7656
ficial	-7657
liomas	-7658
▁house	-7659
▁named	-7660
▁tetra	-7661
▁waist	-7662
ariasis	-7663
protein	-7664
▁Bardet	-7665
▁biotin	-7666
▁spaces	-7667
▁sparse	-7668
▁suffer	-7669
cellular	-7670
ellweger	-7671
epilepsy	-7672
▁Profess	-7673
▁elderly	-7674
▁liquids	-7675
▁mosquit	-7676
▁mothers	-7677
▁persist	-7678
▁started	-7679
▁stopped	-7680
▁subtype	-7681
▁Axenfeld	-7682
▁Cockayne	-7683
▁Specific	-7684
▁Williams	-7685
▁becoming	-7686
▁cervical	-7687
▁managing	-7688
▁proximal	-7689
▁solution	-7690
peripheral	-7691
▁Dysplasia	-7692
▁Incoordin	-7693
▁Secondary	-7694
▁processed	-7695
▁variation	-7696
▁Dysarthria	-7697
▁detachment	-7698
▁penetrance	-7699
▁pernicious	-7700
contractures	-7701
phospholipid	-7702
▁overlapping	-7703
culocutaneous	-7704
olesterolemia	-7705
▁Incoordination	-7706
▁glomerulopathy	-7707
▁osteochondromas	-7708
eh	-7709
ny	-7710
21.	-7711
CID	-7712
CNA	-7713
pie	-7714
raz	-7715
▁1?	-7716
▁Up	-7717
▁ef	-7718
ager	-7719
aker	-7720
arbo	-7721
aron	-7722
atid	-7723
onyl	-7724
▁21-	-7725
▁AVM	-7726
▁Eat	-7727
▁tib	-7728
acioc	-7729
arsen	-7730
ckets	-7731
class	-7732
ctomy	-7733
heart	-7734
ispan	-7735
othal	-7736
penis	-7737
▁Anti	-7738
▁Lack	-7739
▁Slow	-7740
▁fine	-7741
▁stre	-7742
Rieger	-7743
opkins	-7744
thisis	-7745
thromb	-7746
▁Dandy	-7747
▁Hypop	-7748
▁North	-7749
▁Scler	-7750
▁Weill	-7751
▁stays	-7752
▁trait	-7753
▁watch	-7754
▁Anyone	-7755
▁Crohns	-7756
▁Tremor	-7757
▁bluish	-7758
▁bowing	-7759
▁cortex	-7760
▁insect	-7761
▁larynx	-7762
▁ocular	-7763
▁pieces	-7764
▁thirst	-7765
▁upward	-7766
ationary	-7767
hidrosis	-7768
iredness	-7769
▁Alcohol	-7770
▁Support	-7771
▁elastic	-7772
▁express	-7773
▁menstru	-7774
▁reverse	-7775
▁undergo	-7776
clusively	-7777
osomiasis	-7778
▁Glycogen	-7779
▁Kallmann	-7780
▁connexin	-7781
▁thorough	-7782
▁Postaxial	-7783
▁efficient	-7784
▁hematuria	-7785
▁prevented	-7786
▁dermatitis	-7787
▁dysgenesis	-7788
▁institutes	-7789
▁lymphohist	-7790
▁performing	-7791
▁recognized	-7792
iventricular	-7793
▁endometrial	-7794
▁hypertrophy	-7795
▁pregnancies	-7796
▁Chemotherapy	-7797
▁Osteoarthritis	-7798
▁dermatomyositis	-7799
EF	-7800
Se	-7801
ux	-7802
BBB	-7803
▁FL	-7804
eria	-7805
home	-7806
▁Hor	-7807
▁Mig	-7808
▁PCD	-7809
▁Rep	-7810
▁VII	-7811
acrim	-7812
agger	-7813
elong	-7814
endym	-7815
oleuk	-7816
opsia	-7817
▁Anal	-7818
▁Foot	-7819
▁Pres	-7820
▁Read	-7821
▁Thus	-7822
▁cope	-7823
▁sphe	-7824
▁tort	-7825
omelia	-7826
uritus	-7827
▁Aging	-7828
▁allev	-7829
▁bites	-7830
▁carin	-7831
▁sites	-7832
▁suppl	-7833
▁toxin	-7834
▁vocal	-7835
cturnal	-7836
genetic	-7837
growing	-7838
lasting	-7839
mittent	-7840
odontia	-7841
rinking	-7842
▁Coarse	-7843
▁Follow	-7844
▁border	-7845
▁fontan	-7846
▁review	-7847
▁thorax	-7848
▁venous	-7849
balanced	-7850
iparesis	-7851
▁Niemann	-7852
▁apraxia	-7853
▁healing	-7854
▁workers	-7855
▁adequate	-7856
▁alveolar	-7857
▁auditory	-7858
▁botulism	-7859
▁directed	-7860
▁observed	-7861
▁thinning	-7862
▁complexes	-7863
▁correctly	-7864
▁erythemat	-7865
▁lysosomal	-7866
▁commercial	-7867
▁stimulates	-7868
▁transfusion	-7869
▁deficiencies	-7870
▁fibrillation	-7871
▁pancreatitis	-7872
▁comprehensive	-7873
cholesterolemia	-7874
▁frontotemporal	-7875
▁telangiectasia	-7876
▁Musculoskeletal	-7877
EL	-7878
GT	-7879
In	-7880
LR	-7881
Re	-7882
ARD	-7883
RAS	-7884
ada	-7885
ani	-7886
nch	-7887
ury	-7888
▁Lu	-7889
Pick	-7890
iber	-7891
ilet	-7892
oret	-7893
oval	-7894
yron	-7895
▁50.	-7896
▁Bal	-7897
▁Cut	-7898
▁Den	-7899
▁Pla	-7900
▁Umb	-7901
▁byp	-7902
▁far	-7903
▁lep	-7904
▁lie	-7905
Watch	-7906
astin	-7907
clamp	-7908
erous	-7909
gthen	-7910
inous	-7911
irror	-7912
oping	-7913
utter	-7914
▁Aden	-7915
▁cere	-7916
▁gran	-7917
▁tape	-7918
▁valg	-7919
aginal	-7920
ardium	-7921
oretin	-7922
▁	-7923
e	-7924
a	-7925
t	-7926
o	-7927
i	-7928
n	-7929
s	-7930
r	-7931
l	-7932
h	-7933
c	-7934
d	-7935
m	-7936
u	-7937
p	-7938
y	-7939
f	-7940
g	-7941
b	-7942
.	-7943
v	-7944
w	-7945
,	-7946
-	-7947
k	-7948
T	-7949
A	-7950
:	-7951
)	-7952
(	-7953
I	-7954
S	-7955
P	-7956
C	-7957
x	-7958
M	-7959
H	-7960
D	-7961
W	-7962
?	-7963
Q	-7964
0	-7965
R	-7966
5	-7967
O	-7968
1	-7969
G	-7970
B	-7971
%	-7972
N	-7973
q	-7974
2	-7975
F	-7976
L	-7977
E	-7978
z	-7979
'	-7980
j	-7981
9	-7982
7	-7983
;	-7984
Y	-7985
K	-7986
/	-7987
V	-7988
3	-7989
U	-7990
X	-7991
4	-7992
6	-7993
